{
  "version": "1.0",
  "truncation": null,
  "padding": null,
  "added_tokens": [
    {
      "id": 0,
      "content": "[PAD]",
      "single_word": false,
      "lstrip": false,
      "rstrip": false,
      "normalized": false,
      "special": true
    },
    {
      "id": 1,
      "content": "[BOS]",
      "single_word": false,
      "lstrip": false,
      "rstrip": false,
      "normalized": false,
      "special": true
    },
    {
      "id": 2,
      "content": "[EOS]",
      "single_word": false,
      "lstrip": false,
      "rstrip": false,
      "normalized": false,
      "special": true
    },
    {
      "id": 3,
      "content": "[UNK]",
      "single_word": false,
      "lstrip": false,
      "rstrip": false,
      "normalized": false,
      "special": true
    },
    {
      "id": 4,
      "content": "[MASK]",
      "single_word": false,
      "lstrip": false,
      "rstrip": false,
      "normalized": false,
      "special": true
    }
  ],
  "normalizer": null,
  "pre_tokenizer": {
    "type": "ByteLevel",
    "add_prefix_space": true,
    "trim_offsets": true,
    "use_regex": true
  },
  "post_processor": null,
  "decoder": null,
  "model": {
    "type": "BPE",
    "dropout": null,
    "unk_token": "[UNK]",
    "continuing_subword_prefix": null,
    "end_of_word_suffix": null,
    "fuse_unk": false,
    "byte_fallback": false,
    "ignore_merges": false,
    "vocab": {
      "[PAD]": 0,
      "[BOS]": 1,
      "[EOS]": 2,
      "[UNK]": 3,
      "[MASK]": 4,
      "!": 5,
      "\"": 6,
      "#": 7,
      "$": 8,
      "%": 9,
      "&": 10,
      "'": 11,
      "(": 12,
      ")": 13,
      "*": 14,
      "+": 15,
      ",": 16,
      "-": 17,
      ".": 18,
      "/": 19,
      "0": 20,
      "1": 21,
      "2": 22,
      "3": 23,
      "4": 24,
      "5": 25,
      "6": 26,
      "7": 27,
      "8": 28,
      "9": 29,
      ":": 30,
      ";": 31,
      "<": 32,
      "=": 33,
      ">": 34,
      "?": 35,
      "@": 36,
      "A": 37,
      "B": 38,
      "C": 39,
      "D": 40,
      "E": 41,
      "F": 42,
      "G": 43,
      "H": 44,
      "I": 45,
      "J": 46,
      "K": 47,
      "L": 48,
      "M": 49,
      "N": 50,
      "O": 51,
      "P": 52,
      "Q": 53,
      "R": 54,
      "S": 55,
      "T": 56,
      "U": 57,
      "V": 58,
      "W": 59,
      "X": 60,
      "Y": 61,
      "Z": 62,
      "[": 63,
      "\\": 64,
      "]": 65,
      "^": 66,
      "_": 67,
      "`": 68,
      "a": 69,
      "b": 70,
      "c": 71,
      "d": 72,
      "e": 73,
      "f": 74,
      "g": 75,
      "h": 76,
      "i": 77,
      "j": 78,
      "k": 79,
      "l": 80,
      "m": 81,
      "n": 82,
      "o": 83,
      "p": 84,
      "q": 85,
      "r": 86,
      "s": 87,
      "t": 88,
      "u": 89,
      "v": 90,
      "w": 91,
      "x": 92,
      "y": 93,
      "z": 94,
      "{": 95,
      "|": 96,
      "}": 97,
      "~": 98,
      "¡": 99,
      "¢": 100,
      "£": 101,
      "¤": 102,
      "¥": 103,
      "¦": 104,
      "§": 105,
      "¨": 106,
      "©": 107,
      "ª": 108,
      "«": 109,
      "¬": 110,
      "®": 111,
      "¯": 112,
      "°": 113,
      "±": 114,
      "²": 115,
      "³": 116,
      "´": 117,
      "µ": 118,
      "¶": 119,
      "·": 120,
      "¸": 121,
      "¹": 122,
      "º": 123,
      "»": 124,
      "¼": 125,
      "½": 126,
      "¾": 127,
      "¿": 128,
      "Â": 129,
      "Ã": 130,
      "Ä": 131,
      "Å": 132,
      "Æ": 133,
      "Ç": 134,
      "È": 135,
      "É": 136,
      "Ê": 137,
      "Ë": 138,
      "Ì": 139,
      "Í": 140,
      "Î": 141,
      "Ï": 142,
      "Ð": 143,
      "Ñ": 144,
      "Ò": 145,
      "Ó": 146,
      "Ô": 147,
      "Õ": 148,
      "Ö": 149,
      "×": 150,
      "Ø": 151,
      "Ù": 152,
      "Ú": 153,
      "Û": 154,
      "Ü": 155,
      "à": 156,
      "á": 157,
      "â": 158,
      "ã": 159,
      "ä": 160,
      "å": 161,
      "æ": 162,
      "ç": 163,
      "è": 164,
      "é": 165,
      "ê": 166,
      "ë": 167,
      "ì": 168,
      "í": 169,
      "ï": 170,
      "ð": 171,
      "ĉ": 172,
      "Ċ": 173,
      "Ġ": 174,
      "Ģ": 175,
      "ģ": 176,
      "Ĥ": 177,
      "ĥ": 178,
      "Ħ": 179,
      "ħ": 180,
      "Ĩ": 181,
      "ĩ": 182,
      "Ī": 183,
      "ī": 184,
      "Ĭ": 185,
      "ĭ": 186,
      "Į": 187,
      "į": 188,
      "İ": 189,
      "ı": 190,
      "Ĳ": 191,
      "ĳ": 192,
      "Ĵ": 193,
      "ĵ": 194,
      "Ķ": 195,
      "ķ": 196,
      "ĸ": 197,
      "Ĺ": 198,
      "ĺ": 199,
      "Ļ": 200,
      "ļ": 201,
      "Ľ": 202,
      "ľ": 203,
      "Ŀ": 204,
      "ŀ": 205,
      "Ł": 206,
      "ł": 207,
      "Ń": 208,
      "Ġa": 209,
      "he": 210,
      "Ġt": 211,
      "in": 212,
      "er": 213,
      "on": 214,
      "Ġthe": 215,
      "or": 216,
      "is": 217,
      "an": 218,
      "Ġo": 219,
      "ed": 220,
      "en": 221,
      "at": 222,
      "es": 223,
      "ar": 224,
      "al": 225,
      "Ġs": 226,
      "Ġof": 227,
      "Ġin": 228,
      "Ġw": 229,
      "Ġan": 230,
      "it": 231,
      "as": 232,
      "Ġf": 233,
      "ic": 234,
      "Ġc": 235,
      "re": 236,
      "Ġb": 237,
      "Ġand": 238,
      "Ġp": 239,
      "ĠS": 240,
      "ro": 241,
      "ĠT": 242,
      "ion": 243,
      "ĠA": 244,
      "ĠC": 245,
      "Ġ1": 246,
      "ing": 247,
      "le": 248,
      "Ġm": 249,
      "ou": 250,
      "Ġis": 251,
      "il": 252,
      "ĠM": 253,
      "Ġ(": 254,
      "ĠB": 255,
      "Ġd": 256,
      "am": 257,
      "ent": 258,
      "Ġto": 259,
      "ĠI": 260,
      "ol": 261,
      "ĠH": 262,
      "ĠP": 263,
      "om": 264,
      "Ġwas": 265,
      "st": 266,
      "el": 267,
      "ĠThe": 268,
      "Ġh": 269,
      "Ġ19": 270,
      "Ġl": 271,
      "ĠR": 272,
      "ur": 273,
      "ist": 274,
      "ad": 275,
      "et": 276,
      "ch": 277,
      "ct": 278,
      "ation": 279,
      "un": 280,
      "Ġn": 281,
      "ĠD": 282,
      "ĠL": 283,
      "iv": 284,
      "ly": 285,
      "ĠN": 286,
      "ay": 287,
      "th": 288,
      "ig": 289,
      "ĠG": 290,
      "ĠF": 291,
      "ir": 292,
      "Ġfor": 293,
      "Ġ2": 294,
      "Ġre": 295,
      "us": 296,
      "Ġon": 297,
      "ĠE": 298,
      "ĠW": 299,
      "em": 300,
      "ter": 301,
      "and": 302,
      "Ġas": 303,
      "id": 304,
      "ow": 305,
      "ra": 306,
      "Ġby": 307,
      "ce": 308,
      "Ġe": 309,
      "ers": 310,
      "ot": 311,
      "ĠJ": 312,
      "Ġg": 313,
      "Ġst": 314,
      "im": 315,
      "um": 316,
      "Ġth": 317,
      "ag": 318,
      "ul": 319,
      "00": 320,
      "est": 321,
      "rom": 322,
      "ian": 323,
      "oc": 324,
      "Ġal": 325,
      "her": 326,
      "ĠO": 327,
      "ia": 328,
      "ut": 329,
      "ith": 330,
      "ec": 331,
      "ĠK": 332,
      "oun": 333,
      "ĠIt": 334,
      "os": 335,
      "ĠU": 336,
      "Ġfrom": 337,
      "ber": 338,
      "op": 339,
      "Ġat": 340,
      "ity": 341,
      "Ġwith": 342,
      "ĠIn": 343,
      "all": 344,
      "Ġr": 345,
      "Ġwh": 346,
      "ov": 347,
      "ac": 348,
      "Ġcom": 349,
      "ĠSt": 350,
      "mer": 351,
      "Ġv": 352,
      "âĢ": 353,
      "ated": 354,
      "ies": 355,
      "ip": 356,
      "od": 357,
      "art": 358,
      "'s": 359,
      "Ġpro": 360,
      "Ġor": 361,
      "Ġcon": 362,
      "Ġbe": 363,
      "ud": 364,
      "if": 365,
      "ish": 366,
      "orn": 367,
      "ub": 368,
      "ess": 369,
      "ate": 370,
      "ill": 371,
      "ab": 372,
      "âĢĵ": 373,
      "ĠHe": 374,
      "Ġhe": 375,
      "Ġit": 376,
      "ain": 377,
      "),": 378,
      "ort": 379,
      "Ġ\"": 380,
      "igh": 381,
      "ew": 382,
      "av": 383,
      "ak": 384,
      "ĠCh": 385,
      "ary": 386,
      "Ġare": 387,
      "Ġpl": 388,
      "up": 389,
      "ap": 390,
      "ich": 391,
      "ard": 392,
      "Ġ200": 393,
      "ĠV": 394,
      "ge": 395,
      "ear": 396,
      "ast": 397,
      "og": 398,
      "ame": 399,
      "ev": 400,
      "ric": 401,
      "ong": 402,
      "ĠUn": 403,
      "ial": 404,
      "our": 405,
      "ep": 406,
      "ust": 407,
      "ine": 408,
      "land": 409,
      "own": 410,
      "ive": 411,
      "ant": 412,
      "ord": 413,
      "ug": 414,
      "ri": 415,
      "ĠĠ": 416,
      "Ġhis": 417,
      "so": 418,
      "Ġk": 419,
      "rit": 420,
      "uc": 421,
      "Ġthat": 422,
      "ld": 423,
      "ue": 424,
      "Ġch": 425,
      "und": 426,
      "end": 427,
      "ory": 428,
      "fer": 429,
      "ous": 430,
      "ran": 431,
      "Ġcomp": 432,
      "ount": 433,
      "ical": 434,
      "ell": 435,
      "Ġ199": 436,
      "ment": 437,
      "Ġsp": 438,
      "Ġ18": 439,
      "ember": 440,
      "tern": 441,
      "ican": 442,
      "Ġalso": 443,
      "ost": 444,
      "Ġ20": 445,
      "irst": 446,
      "Ġser": 447,
      "ĠAmer": 448,
      "ect": 449,
      "age": 450,
      "ork": 451,
      "ational": 452,
      "Ġde": 453,
      "man": 454,
      "Ġwhich": 455,
      "qu": 456,
      "ry": 457,
      "Ġplay": 458,
      "ool": 459,
      "ey": 460,
      "ĠAl": 461,
      "ore": 462,
      "ark": 463,
      "Ġfirst": 464,
      "Ġhas": 465,
      "Ġte": 466,
      "ĠAmerican": 467,
      "cl": 468,
      "ass": 469,
      "19": 470,
      "out": 471,
      "Ġex": 472,
      "ound": 473,
      "ph": 474,
      "ĠY": 475,
      "ok": 476,
      "ĠâĢĵ": 477,
      "nown": 478,
      "chool": 479,
      "ĠAn": 480,
      "Ġloc": 481,
      "ver": 482,
      "ire": 483,
      "Ġ198": 484,
      "ball": 485,
      "wn": 486,
      "ions": 487,
      "Ġle": 488,
      "outh": 489,
      "Ġpart": 490,
      "per": 491,
      "ts": 492,
      "hed": 493,
      "ited": 494,
      "are": 495,
      "ates": 496,
      "eg": 497,
      "res": 498,
      "ang": 499,
      "Ġknown": 500,
      "ond": 501,
      "Ġro": 502,
      "ĠNew": 503,
      "Ġ197": 504,
      "Ġwho": 505,
      "ure": 506,
      "ĠAr": 507,
      "Ġy": 508,
      "orth": 509,
      ").": 510,
      "Ġar": 511,
      "Ġsh": 512,
      "Ġits": 513,
      "ased": 514,
      "enc": 515,
      "ens": 516,
      "iz": 517,
      "istric": 518,
      "Ġcl": 519,
      "ree": 520,
      "pp": 521,
      "ĠEn": 522,
      "ere": 523,
      "Ġun": 524,
      "ie": 525,
      "Ġ3": 526,
      "Ġus": 527,
      "io": 528,
      "ĠTh": 529,
      "born": 530,
      "ral": 531,
      "ide": 532,
      "Ġse": 533,
      "ack": 534,
      "Ġone": 535,
      "way": 536,
      "wo": 537,
      "ach": 538,
      "ubl": 539,
      "ivers": 540,
      "lect": 541,
      "ater": 542,
      "oot": 543,
      "ff": 544,
      "ice": 545,
      "istory": 546,
      "ign": 547,
      "amp": 548,
      "ĠMar": 549,
      "ally": 550,
      "ern": 551,
      "Ġ196": 552,
      "ight": 553,
      "ru": 554,
      "ther": 555,
      "istrict": 556,
      "Ġwhe": 557,
      "bum": 558,
      "clud": 559,
      "Ġserv": 560,
      "Ġwere": 561,
      "ĠCol": 562,
      "ilm": 563,
      "ton": 564,
      "sh": 565,
      "fter": 566,
      "ee": 567,
      "Ġbo": 568,
      "ics": 569,
      "Ġj": 570,
      "ĠUnited": 571,
      "ional": 572,
      "les": 573,
      "Ġinclud": 574,
      "any": 575,
      "ss": 576,
      "ĠPro": 577,
      "ome": 578,
      "ince": 579,
      "Ġalbum": 580,
      "Ġ201": 581,
      "to": 582,
      "ence": 583,
      "aw": 584,
      "ib": 585,
      "ugh": 586,
      "ik": 587,
      "ootball": 588,
      "Ġad": 589,
      "eral": 590,
      "Ġlocated": 591,
      "ĠCom": 592,
      "ents": 593,
      "rad": 594,
      "Ġcomm": 595,
      "ĠLe": 596,
      "we": 597,
      "act": 598,
      "Ġapp": 599,
      "ĠEng": 600,
      "arly": 601,
      "ult": 602,
      "port": 603,
      "ations": 604,
      "Ġab": 605,
      "Ġcont": 606,
      "ĠRe": 607,
      "orld": 608,
      "ime": 609,
      "ĠCan": 610,
      "Ġtwo": 611,
      "uring": 612,
      "se": 613,
      "ck": 614,
      "Ġborn": 615,
      "Ġyear": 616,
      "ob": 617,
      "iversity": 618,
      "ĠHistory": 619,
      "Ġrec": 620,
      "ife": 621,
      "low": 622,
      "Ġformer": 623,
      "iss": 624,
      "ision": 625,
      "Ġname": 626,
      "ron": 627,
      "ished": 628,
      "ah": 629,
      "eb": 630,
      "ace": 631,
      "Âł": 632,
      "ock": 633,
      "ily": 634,
      "old": 635,
      "opul": 636,
      "Ġres": 637,
      "Ġfilm": 638,
      "ath": 639,
      "Ġac": 640,
      "orm": 641,
      "Ġ195": 642,
      "Ġact": 643,
      "ĠAust": 644,
      "oh": 645,
      "Ġdes": 646,
      "Ġ4": 647,
      "Ġra": 648,
      "ition": 649,
      "pe": 650,
      "Ġco": 651,
      "gan": 652,
      "ild": 653,
      "Ġfound": 654,
      "te": 655,
      "icip": 656,
      "Ġcent": 657,
      "Ġstud": 658,
      "ave": 659,
      "Ġpr": 660,
      "ĠSc": 661,
      "gh": 662,
      "Ġ194": 663,
      "ĠBrit": 664,
      "ounty": 665,
      "Ġmay": 666,
      "igin": 667,
      "pr": 668,
      "ite": 669,
      "Ġwork": 670,
      "oy": 671,
      "lev": 672,
      "iver": 673,
      "ĠUniversity": 674,
      "ĠStates": 675,
      "ely": 676,
      "areer": 677,
      "ĠInd": 678,
      "Ġrefer": 679,
      "ĠSh": 680,
      "ĠCon": 681,
      "olog": 682,
      "ied": 683,
      "raph": 684,
      "ĠCanad": 685,
      "ile": 686,
      "Ġbec": 687,
      "pl": 688,
      "Ġpubl": 689,
      "Ġcol": 690,
      "Ġnot": 691,
      "Ġbet": 692,
      "Ġpol": 693,
      "Ġstation": 694,
      "Ġform": 695,
      "Ġsc": 696,
      "ĠZ": 697,
      "Ġrele": 698,
      "ram": 699,
      "ward": 700,
      "ase": 701,
      "Ġpopul": 702,
      "ten": 703,
      "erman": 704,
      "Ġ5": 705,
      "inc": 706,
      "Ġprod": 707,
      "Ġbeen": 708,
      "Ġhad": 709,
      "Ġgro": 710,
      "Ġtown": 711,
      "ex": 712,
      "Ġmus": 713,
      "ween": 714,
      "ĠSchool": 715,
      "ative": 716,
      "Ġschool": 717,
      "Ġafter": 718,
      "ood": 719,
      "Ġvill": 720,
      "ind": 721,
      "eld": 722,
      "Ġper": 723,
      "ail": 724,
      "ĠBritish": 725,
      "Ġreg": 726,
      "az": 727,
      "Ġmost": 728,
      "unicip": 729,
      "ick": 730,
      "ences": 731,
      "Ġsing": 732,
      "unicipal": 733,
      "mp": 734,
      "20": 735,
      "ne": 736,
      "Ġbetween": 737,
      "Ġoff": 738,
      "Ġher": 739,
      "18": 740,
      "Ġtheir": 741,
      "Ġbut": 742,
      "ĠShe": 743,
      "ors": 744,
      "red": 745,
      "ft": 746,
      "ĠAustral": 747,
      "arl": 748,
      "ans": 749,
      "ograph": 750,
      "Ġtra": 751,
      "ĠCl": 752,
      "ague": 753,
      "ĠSouth": 754,
      "ren": 755,
      "ict": 756,
      "ons": 757,
      "Ġplayed": 758,
      "ames": 759,
      "Ġother": 760,
      "oin": 761,
      "rib": 762,
      "Ġgen": 763,
      "Ġarea": 764,
      "Ġfootball": 765,
      "Ġwrit": 766,
      "ĠIs": 767,
      "emb": 768,
      "ĠPl": 769,
      "rough": 770,
      "Ġcons": 771,
      "inn": 772,
      "anu": 773,
      "Ġused": 774,
      "Ġfam": 775,
      "Ġvillage": 776,
      "Ġsub": 777,
      "ober": 778,
      "ade": 779,
      "ĠJoh": 780,
      "Ġorigin": 781,
      "Ġund": 782,
      "iam": 783,
      "fess": 784,
      "uch": 785,
      "ough": 786,
      "ings": 787,
      "ier": 788,
      "lish": 789,
      "che": 790,
      "Ġed": 791,
      "Ġduring": 792,
      "ix": 793,
      "ĠNorth": 794,
      "ins": 795,
      "hern": 796,
      "ĠCounty": 797,
      "ĠNational": 798,
      "Ã©": 799,
      "ann": 800,
      "Ġsec": 801,
      "ĠGerman": 802,
      "ious": 803,
      "able": 804,
      "ks": 805,
      "ĠSp": 806,
      "aj": 807,
      "ley": 808,
      "Ġen": 809,
      "ury": 810,
      "ake": 811,
      "eat": 812,
      "enn": 813,
      "Ġband": 814,
      "ction": 815,
      "eop": 816,
      "round": 817,
      "rans": 818,
      "isc": 819,
      "Ġ6": 820,
      "Ġhave": 821,
      "ance": 822,
      "Ġelect": 823,
      "ĠWorld": 824,
      "Ġ193": 825,
      "Ġreleased": 826,
      "Ġover": 827,
      "Ġsy": 828,
      "Ġind": 829,
      "ina": 830,
      "pt": 831,
      "Ġpre": 832,
      "Ġdistrict": 833,
      "overn": 834,
      "Ġspec": 835,
      "Ġinto": 836,
      "ician": 837,
      "Ġunder": 838,
      "oci": 839,
      "inist": 840,
      "lege": 841,
      "urr": 842,
      "Ġbu": 843,
      "Ġteam": 844,
      "Ġseries": 845,
      "Ġ17": 846,
      "ĠGe": 847,
      "Ġim": 848,
      "als": 849,
      "Ġprov": 850,
      "Ġcareer": 851,
      "vent": 852,
      "Ġsong": 853,
      "resent": 854,
      "ered": 855,
      "ferences": 856,
      "Ġup": 857,
      "amed": 858,
      "eople": 859,
      "ll": 860,
      "ĠHigh": 861,
      "ities": 862,
      "Ġmunicipal": 863,
      "ield": 864,
      "ĠBr": 865,
      "one": 866,
      "form": 867,
      "ĠJohn": 868,
      "anc": 869,
      "ĠQ": 870,
      "ose": 871,
      "erv": 872,
      "Ġfol": 873,
      "urn": 874,
      "ĠWar": 875,
      "Ġnorth": 876,
      "Ġwhere": 877,
      "ĠReferences": 878,
      "erm": 879,
      "irect": 880,
      "ĠJun": 881,
      "Ġyears": 882,
      "ĠAs": 883,
      "Ġpolit": 884,
      "Ġsev": 885,
      "Ġatt": 886,
      "Ġstate": 887,
      "ĠFran": 888,
      "Ġthrough": 889,
      "ese": 890,
      "ale": 891,
      "son": 892,
      "ĠBl": 893,
      "ĠEx": 894,
      "ography": 895,
      "let": 896,
      "ĠAt": 897,
      "Ġag": 898,
      "Ġlist": 899,
      "Ġest": 900,
      "reat": 901,
      "ĠThis": 902,
      "ternational": 903,
      "Ġmed": 904,
      "Ġlar": 905,
      "Ġnew": 906,
      "ash": 907,
      "Ġcity": 908,
      "ĠOr": 909,
      "ium": 910,
      "Ġthree": 911,
      "tle": 912,
      "cess": 913,
      "Ġ7": 914,
      "hip": 915,
      "Ġprofess": 916,
      "ĠYork": 917,
      "Ġabout": 918,
      "ĠEd": 919,
      "air": 920,
      "Ġall": 921,
      "Ġ15": 922,
      "ĠDistrict": 923,
      "levision": 924,
      "Ġrecord": 925,
      "ĠLeague": 926,
      "ĠEnglish": 927,
      "ress": 928,
      "Ġpopulation": 929,
      "Ġ2006": 930,
      "Ġlife": 931,
      "Ġme": 932,
      "Ġdev": 933,
      "Ġgroup": 934,
      "Ġsouth": 935,
      "Ġsecond": 936,
      "Ġart": 937,
      "Ġwhen": 938,
      "lymp": 939,
      "Ġfamily": 940,
      "ific": 941,
      "Ġ10": 942,
      "Ġnum": 943,
      "ĠOlymp": 944,
      "ĠMay": 945,
      "Ġhigh": 946,
      "pen": 947,
      "hen": 948,
      "Ġ16": 949,
      "ĠNov": 950,
      "Ġph": 951,
      "ĠScot": 952,
      "elop": 953,
      "uro": 954,
      "til": 955,
      "ĠMarch": 956,
      "Ġoper": 957,
      "ĠProv": 958,
      "Ġthis": 959,
      "eth": 960,
      "Ġfollow": 961,
      "ouse": 962,
      "ĠAd": 963,
      "ept": 964,
      "ual": 965,
      "stem": 966,
      "ident": 967,
      "Ġshe": 968,
      "anuary": 969,
      "ank": 970,
      "Ġrel": 971,
      "Ġset": 972,
      "Ġdirect": 973,
      "ists": 974,
      "ĠPark": 975,
      "Ġass": 976,
      "Ġnear": 977,
      "ĠPh": 978,
      "Ġmember": 979,
      "ugust": 980,
      "stit": 981,
      "ating": 982,
      "by": 983,
      "ĠCar": 984,
      "Ġ8": 985,
      "Ġ9": 986,
      "Ġ192": 987,
      "Ġtrans": 988,
      "Ġ()": 989,
      "Ġproduc": 990,
      "Ġcall": 991,
      "ather": 992,
      "Ġfour": 993,
      "urrent": 994,
      "Ġonly": 995,
      "ĠDec": 996,
      "ket": 997,
      "ĠComm": 998,
      "Ġbro": 999,
      "Ġbecame": 1000,
      "Ġwon": 1001,
      "Ġmov": 1002,
      "ert": 1003,
      "Ġ-": 1004,
      "ĠRiver": 1005,
      "ĠCity": 1006,
      "urch": 1007,
      "ĠFor": 1008,
      "ebru": 1009,
      "au": 1010,
      "estern": 1011,
      "ĠKing": 1012,
      "ebruary": 1013,
      "uss": 1014,
      "yl": 1015,
      "Ġmain": 1016,
      "ĠCal": 1017,
      "ĠCanada": 1018,
      "Ġtelevision": 1019,
      "Ġcount": 1020,
      "ĠJanuary": 1021,
      "umb": 1022,
      "fore": 1023,
      "Ġlater": 1024,
      "ĠJu": 1025,
      "der": 1026,
      "ient": 1027,
      "Ġcan": 1028,
      "cc": 1029,
      "ived": 1030,
      "ery": 1031,
      "ĠEarly": 1032,
      "Ġtime": 1033,
      "Ġbased": 1034,
      "ĠReg": 1035,
      "ax": 1036,
      "ĠPr": 1037,
      "Ġchar": 1038,
      "ior": 1039,
      "ai": 1040,
      "ĠCent": 1041,
      "Ġmunicipality": 1042,
      "ctober": 1043,
      "ĠAugust": 1044,
      "istor": 1045,
      "Ġcompet": 1046,
      "Ġlin": 1047,
      "ĠOn": 1048,
      "eptember": 1049,
      "Ġpeople": 1050,
      "ĠWest": 1051,
      "Ġuntil": 1052,
      "Ġent": 1053,
      "ĠAss": 1054,
      "ĠNor": 1055,
      "ĠBar": 1056,
      "Ġnamed": 1057,
      "Ġserved": 1058,
      "rist": 1059,
      "Ġout": 1060,
      "Ġ12": 1061,
      "ason": 1062,
      "Ġwell": 1063,
      "Ġestab": 1064,
      "Ġsm": 1065,
      "ica": 1066,
      "Ã¼": 1067,
      "pril": 1068,
      "Ġpar": 1069,
      "ont": 1070,
      "Ġcommun": 1071,
      "Ġcre": 1072,
      "ĠFebruary": 1073,
      "ted": 1074,
      "Ġinter": 1075,
      "\",": 1076,
      "Ġdesign": 1077,
      "ital": 1078,
      "por": 1079,
      "ĠDecember": 1080,
      "ural": 1081,
      "ĠHis": 1082,
      "ajor": 1083,
      "Ġmusic": 1084,
      "Ġdevelop": 1085,
      "Ġfin": 1086,
      "ology": 1087,
      "000": 1088,
      "Ã¡": 1089,
      "Ġearly": 1090,
      "sp": 1091,
      "Ġsup": 1092,
      "ement": 1093,
      "Ġincluding": 1094,
      "ures": 1095,
      "Ġown": 1096,
      "ise": 1097,
      "Ġcap": 1098,
      "erson": 1099,
      "km": 1100,
      "Ġcalled": 1101,
      "Ġthen": 1102,
      "Ġfounded": 1103,
      "Ġam": 1104,
      "amb": 1105,
      "ĠCo": 1106,
      "Ġmade": 1107,
      "oman": 1108,
      "ĠOctober": 1109,
      "ĠTe": 1110,
      "Ġmod": 1111,
      "ĠNovember": 1112,
      "ilt": 1113,
      "ĠAm": 1114,
      "Ġman": 1115,
      "Ġsuch": 1116,
      "Ġcurrent": 1117,
      "ĠBro": 1118,
      "ĠWill": 1119,
      "Ġrep": 1120,
      "ird": 1121,
      "ower": 1122,
      "ĠIts": 1123,
      "ĠEuro": 1124,
      "Ġvar": 1125,
      "ism": 1126,
      "ĠSeptember": 1127,
      "Ġev": 1128,
      "ended": 1129,
      "ĠPol": 1130,
      "yn": 1131,
      "Ġair": 1132,
      "ĠBo": 1133,
      "Ġbook": 1134,
      "ĠCollege": 1135,
      "els": 1136,
      "ĠEngland": 1137,
      "ys": 1138,
      "Ġfeat": 1139,
      "ross": 1140,
      "Ġclub": 1141,
      "apan": 1142,
      "ampions": 1143,
      "Ġsystem": 1144,
      "ĠApril": 1145,
      "ony": 1146,
      "Ġappear": 1147,
      "Ġ14": 1148,
      "ĠJuly": 1149,
      "ke": 1150,
      "ĠSw": 1151,
      "Ġprofessional": 1152,
      "overnment": 1153,
      "Ġsmall": 1154,
      "ute": 1155,
      "rid": 1156,
      "Ġint": 1157,
      "Ġrail": 1158,
      "ae": 1159,
      "Ġmore": 1160,
      "ĠState": 1161,
      "imes": 1162,
      "ham": 1163,
      "Ġgame": 1164,
      "Ġdef": 1165,
      "rand": 1166,
      "Ġbeing": 1167,
      "ĠBe": 1168,
      "angu": 1169,
      "Ġthey": 1170,
      "Ġopen": 1171,
      "hem": 1172,
      "eng": 1173,
      "ĠJapan": 1174,
      "ains": 1175,
      "ĠTur": 1176,
      "Ä±": 1177,
      "Ġoffic": 1178,
      "ĠAll": 1179,
      "Ġnumber": 1180,
      "Ġlead": 1181,
      "Ġplayer": 1182,
      "ĠJune": 1183,
      "uit": 1184,
      "uth": 1185,
      "ĠDe": 1186,
      "Ġmany": 1187,
      "ĠAf": 1188,
      "ĠII": 1189,
      "Ġdesc": 1190,
      "ĠGeor": 1191,
      "Ġbest": 1192,
      "Ġpublished": 1193,
      "ĠMan": 1194,
      "ĠAustralian": 1195,
      "Ġsince": 1196,
      "aus": 1197,
      "ĠBi": 1198,
      "ike": 1199,
      "ject": 1200,
      "ars": 1201,
      "ĠEurope": 1202,
      "Ġpark": 1203,
      "Ġ,": 1204,
      "lished": 1205,
      "Ġ11": 1206,
      "Ġseveral": 1207,
      "Ġret": 1208,
      "Ġso": 1209,
      "rip": 1210,
      "Ġmet": 1211,
      "Ġ13": 1212,
      "iet": 1213,
      "ĠThey": 1214,
      "Ġboth": 1215,
      "ĠWh": 1216,
      "ĠItal": 1217,
      "my": 1218,
      "ounc": 1219,
      "urg": 1220,
      "Ġcompany": 1221,
      "Ġbefore": 1222,
      "ĠIsland": 1223,
      "gest": 1224,
      "ution": 1225,
      "ty": 1226,
      "Ġorgan": 1227,
      "Ġsingle": 1228,
      "Ġeduc": 1229,
      "ull": 1230,
      "ĠPart": 1231,
      "astern": 1232,
      "ĠMus": 1233,
      "ourn": 1234,
      "ters": 1235,
      "ces": 1236,
      "ĠPar": 1237,
      "gram": 1238,
      "ĠRo": 1239,
      "ized": 1240,
      "ĠCanadian": 1241,
      "Ġsk": 1242,
      "orthern": 1243,
      "ster": 1244,
      "ator": 1245,
      "lor": 1246,
      "Ġtit": 1247,
      "ĠComp": 1248,
      "uct": 1249,
      "ille": 1250,
      "Ġnational": 1251,
      "Ġrem": 1252,
      "Ġ2005": 1253,
      "ĠChrist": 1254,
      "erg": 1255,
      "Ġpublic": 1256,
      "its": 1257,
      "oss": 1258,
      "Ġlong": 1259,
      "Ġcharact": 1260,
      "ĠÃ": 1261,
      "ternal": 1262,
      "Ġqu": 1263,
      "ĠAustralia": 1264,
      "ĠRec": 1265,
      "ĠWilliam": 1266,
      "Ġsome": 1267,
      "the": 1268,
      "ĠGu": 1269,
      "Ġ191": 1270,
      "ze": 1271,
      "200": 1272,
      "Ġterm": 1273,
      "ington": 1274,
      "ĠHar": 1275,
      "ĠAfter": 1276,
      "uated": 1277,
      "rench": 1278,
      "ĠAb": 1279,
      "ĠRep": 1280,
      "ically": 1281,
      "Ġpolitician": 1282,
      "ane": 1283,
      "ially": 1284,
      "\".": 1285,
      "rum": 1286,
      "rop": 1287,
      "aur": 1288,
      "Ġext": 1289,
      "Ġfl": 1290,
      "Ġcentury": 1291,
      "ford": 1292,
      "Ġbegan": 1293,
      "ĠWal": 1294,
      "adio": 1295,
      "ĠSe": 1296,
      "Ġshow": 1297,
      "ould": 1298,
      "Ġbuilt": 1299,
      "Ġrun": 1300,
      "Ġbl": 1301,
      "dom": 1302,
      "Ġworld": 1303,
      "ĠEl": 1304,
      "Ġbas": 1305,
      "Ġwritten": 1306,
      "omet": 1307,
      "embers": 1308,
      "ampionship": 1309,
      "Ġclass": 1310,
      "com": 1311,
      "ĠIndian": 1312,
      "ĠInternational": 1313,
      "ĠTra": 1314,
      "Ġfollowing": 1315,
      "ants": 1316,
      "Ġne": 1317,
      "Ġhead": 1318,
      "ever": 1319,
      "bo": 1320,
      "Ġdist": 1321,
      "ices": 1322,
      "ages": 1323,
      "ockey": 1324,
      "incial": 1325,
      "Ġestablished": 1326,
      "Ġthan": 1327,
      "Ġson": 1328,
      "Ġmon": 1329,
      "Ġgrad": 1330,
      "Ġtrad": 1331,
      "Ġend": 1332,
      "Ġstart": 1333,
      "eal": 1334,
      "ives": 1335,
      "ĠSee": 1336,
      "lex": 1337,
      "reen": 1338,
      "ode": 1339,
      "ris": 1340,
      "Ġcar": 1341,
      "outhern": 1342,
      "ually": 1343,
      "Ġheld": 1344,
      "Ġeast": 1345,
      "Ġdep": 1346,
      "Ġregion": 1347,
      "ines": 1348,
      "ĠAnd": 1349,
      "ret": 1350,
      "ĠFootball": 1351,
      "rew": 1352,
      "for": 1353,
      "Ã¶": 1354,
      "Ġem": 1355,
      "Ġmat": 1356,
      "Ġ190": 1357,
      "chn": 1358,
      "Ġcommon": 1359,
      "ĠFrench": 1360,
      "ays": 1361,
      "ino": 1362,
      "Ġdec": 1363,
      "Ġty": 1364,
      "reet": 1365,
      "Ġalong": 1366,
      "iforn": 1367,
      "ords": 1368,
      "ular": 1369,
      "Ġseason": 1370,
      "sk": 1371,
      "ship": 1372,
      "me": 1373,
      "iving": 1374,
      "Ġsur": 1375,
      "Ġnov": 1376,
      "ĠOlympics": 1377,
      "ifornia": 1378,
      "arn": 1379,
      "Ġprogram": 1380,
      "uthor": 1381,
      "ange": 1382,
      "iew": 1383,
      "Ġmajor": 1384,
      "ĠColumb": 1385,
      "Ġ2004": 1386,
      "Ġdeb": 1387,
      "Ġ.": 1388,
      "ĠEast": 1389,
      "af": 1390,
      "ene": 1391,
      "Ġspecies": 1392,
      "elf": 1393,
      "aces": 1394,
      "que": 1395,
      "ĠCalifornia": 1396,
      "west": 1397,
      "Ġrece": 1398,
      "ract": 1399,
      "Ġ189": 1400,
      "aster": 1401,
      "ĠHer": 1402,
      "ĠDav": 1403,
      "ruct": 1404,
      "other": 1405,
      "Ġlinks": 1406,
      "ĠMich": 1407,
      "Ġlocal": 1408,
      "ission": 1409,
      "Ġsuc": 1410,
      "Ġnow": 1411,
      "osed": 1412,
      "Ġsign": 1413,
      "Ġrock": 1414,
      "ĠAfric": 1415,
      "ues": 1416,
      "ĠAir": 1417,
      "Ġwest": 1418,
      "uk": 1419,
      "Ġinv": 1420,
      "Ġlangu": 1421,
      "Ġ&": 1422,
      "ĠGl": 1423,
      "Ġrailway": 1424,
      "ĠBiography": 1425,
      "adem": 1426,
      "ling": 1427,
      "ta": 1428,
      "Ġdis": 1429,
      "ĠExternal": 1430,
      "Ġrepresent": 1431,
      "ĠParty": 1432,
      "led": 1433,
      "shire": 1434,
      "ivision": 1435,
      "ately": 1436,
      "ung": 1437,
      "ana": 1438,
      "ara": 1439,
      "arm": 1440,
      "ociation": 1441,
      "ondon": 1442,
      "ised": 1443,
      "Ġold": 1444,
      "urb": 1445,
      "uck": 1446,
      "22": 1447,
      "Ġthere": 1448,
      "Ġsit": 1449,
      "Ġappro": 1450,
      "inter": 1451,
      "ĠGermany": 1452,
      "Ġhistory": 1453,
      "ĠAng": 1454,
      "con": 1455,
      "Ġmembers": 1456,
      "ĠLondon": 1457,
      "ĠMed": 1458,
      "Ġ(;": 1459,
      "ĠSy": 1460,
      "Ġ2000": 1461,
      "ĠTurk": 1462,
      "Ġline": 1463,
      "idd": 1464,
      "ired": 1465,
      "ĠUS": 1466,
      "ience": 1467,
      "ĠColumbia": 1468,
      "Ġsim": 1469,
      "ĠProvince": 1470,
      "Ġfather": 1471,
      "ments": 1472,
      "Ġbus": 1473,
      "17": 1474,
      "Ġaround": 1475,
      "lo": 1476,
      "ove": 1477,
      "vel": 1478,
      "Ġmil": 1479,
      "Ġchild": 1480,
      "iness": 1481,
      "Ġpo": 1482,
      "Ġmin": 1483,
      "ĠThere": 1484,
      "ĠSan": 1485,
      "resident": 1486,
      "ting": 1487,
      "Ġ2002": 1488,
      "Ġep": 1489,
      "Ġcreated": 1490,
      "Ġcountry": 1491,
      "Ã³": 1492,
      "Ġland": 1493,
      "Ġeng": 1494,
      "reek": 1495,
      "Ġproduced": 1496,
      "ublic": 1497,
      "ĠPet": 1498,
      "ĠĠĠĠ": 1499,
      "Ġauthor": 1500,
      "ĠAc": 1501,
      "Ġmar": 1502,
      "Ġhistor": 1503,
      "199": 1504,
      "Ġjoin": 1505,
      "Ġoriginally": 1506,
      "ĠRuss": 1507,
      "Ġshort": 1508,
      "ization": 1509,
      "Ġbel": 1510,
      "Ġwithin": 1511,
      "Ġdebut": 1512,
      "Ġlaw": 1513,
      "wards": 1514,
      "Ġhome": 1515,
      "Ġplace": 1516,
      "Ġinclude": 1517,
      "tar": 1518,
      "Ġsix": 1519,
      "ĠRoman": 1520,
      "fl": 1521,
      "Ġprom": 1522,
      "Ġformed": 1523,
      "work": 1524,
      "iter": 1525,
      "Ġ2003": 1526,
      "ĠQue": 1527,
      "omen": 1528,
      "Ġdif": 1529,
      "Ġ1999": 1530,
      "Ġcharacter": 1531,
      "orpor": 1532,
      "ĠChar": 1533,
      "ible": 1534,
      "Ġbuild": 1535,
      "minist": 1536,
      "Ġocc": 1537,
      "Ġ2001": 1538,
      "Ġ188": 1539,
      "21": 1540,
      "ÃŃ": 1541,
      "Ġarch": 1542,
      "Ġ|": 1543,
      "Ġgovernment": 1544,
      "Ġwhile": 1545,
      "ĠHol": 1546,
      "ĠPhil": 1547,
      "olv": 1548,
      "Ġcov": 1549,
      "augh": 1550,
      "ĠMal": 1551,
      "ency": 1552,
      "ka": 1553,
      "ĠMc": 1554,
      "ring": 1555,
      "Ġdisc": 1556,
      "Ġdo": 1557,
      "Ġsinger": 1558,
      "ĠChurch": 1559,
      "rat": 1560,
      "raft": 1561,
      "ger": 1562,
      "Ġ1980": 1563,
      "nect": 1564,
      "epend": 1565,
      "Ġ25": 1566,
      "Ġob": 1567,
      "vious": 1568,
      "ĠRoad": 1569,
      "ĠBel": 1570,
      "Ġsame": 1571,
      "Ġadd": 1572,
      "ĠIndia": 1573,
      "ler": 1574,
      "Ġagain": 1575,
      "field": 1576,
      "ĠVal": 1577,
      "Ġ1990": 1578,
      "Ġcurrently": 1579,
      "ided": 1580,
      "ained": 1581,
      "nd": 1582,
      "ner": 1583,
      "Ġ'": 1584,
      "ĠGen": 1585,
      "ĠX": 1586,
      "Ġtrack": 1587,
      "bor": 1588,
      "ummer": 1589,
      "ĠKingdom": 1590,
      "aul": 1591,
      "ĠLake": 1592,
      "ĠScott": 1593,
      "Ġmanag": 1594,
      "ĠRail": 1595,
      "Ġhim": 1596,
      "âĢĶ": 1597,
      "oth": 1598,
      "lin": 1599,
      "Ġinst": 1600,
      "Ġtitle": 1601,
      "Ġnovel": 1602,
      "iev": 1603,
      "ata": 1604,
      "Ġthird": 1605,
      "Ġinc": 1606,
      "ĠPre": 1607,
      "ĠRoy": 1608,
      "ats": 1609,
      "ĠPort": 1610,
      "Ġacc": 1611,
      "ĠSec": 1612,
      "rod": 1613,
      "ĠBra": 1614,
      "cast": 1615,
      "ering": 1616,
      "Ġback": 1617,
      "ified": 1618,
      "aking": 1619,
      "Ġsuccess": 1620,
      "Ġ30": 1621,
      "ve": 1622,
      "Ġvers": 1623,
      "Ġ)": 1624,
      "ald": 1625,
      "ĠDes": 1626,
      "Ġprim": 1627,
      "ĠHouse": 1628,
      "ketball": 1629,
      "omin": 1630,
      "ael": 1631,
      "Ġuse": 1632,
      "ĠPer": 1633,
      "cept": 1634,
      "hes": 1635,
      "ured": 1636,
      "day": 1637,
      "uction": 1638,
      "ĠSer": 1639,
      "Ġ187": 1640,
      "Ġcoach": 1641,
      "ides": 1642,
      "oph": 1643,
      "Ġdescrib": 1644,
      "Ġann": 1645,
      "Ġoften": 1646,
      "ĠStreet": 1647,
      "ouncil": 1648,
      "ĠMinist": 1649,
      "ĠClub": 1650,
      "Ġcommunity": 1651,
      "lands": 1652,
      "ature": 1653,
      "row": 1654,
      "ĠMount": 1655,
      "ried": 1656,
      "ined": 1657,
      "ania": 1658,
      "ĠMon": 1659,
      "ridge": 1660,
      "ĠCareer": 1661,
      "16": 1662,
      "Ġoriginal": 1663,
      "ful": 1664,
      "Ġfive": 1665,
      "irth": 1666,
      "Ġwriter": 1667,
      "Ġfield": 1668,
      "ville": 1669,
      "olic": 1670,
      "ĠDavid": 1671,
      "ister": 1672,
      "Ġ24": 1673,
      "iod": 1674,
      "Ġinternational": 1675,
      "Ġlargest": 1676,
      "Ġdeath": 1677,
      "ĠRecords": 1678,
      "The": 1679,
      "Ġpresent": 1680,
      "Ġradio": 1681,
      "FL": 1682,
      "att": 1683,
      "ĠCup": 1684,
      "adium": 1685,
      "Ġno": 1686,
      "cent": 1687,
      "ĠJames": 1688,
      "roup": 1689,
      "sc": 1690,
      "iber": 1691,
      "alist": 1692,
      "itary": 1693,
      "ico": 1694,
      "ether": 1695,
      "15": 1696,
      "Ġmag": 1697,
      "Ġcollege": 1698,
      "ches": 1699,
      "earch": 1700,
      "ivil": 1701,
      "oint": 1702,
      "akes": 1703,
      "arliam": 1704,
      "ĠRober": 1705,
      "ĠChampionship": 1706,
      "aseball": 1707,
      "Ġconst": 1708,
      "Ġ1970": 1709,
      "uter": 1710,
      "ipp": 1711,
      "10": 1712,
      "ena": 1713,
      "ĠNo": 1714,
      "ries": 1715,
      "ility": 1716,
      "ĠBorn": 1717,
      "ets": 1718,
      "anish": 1719,
      "ĠEm": 1720,
      "ript": 1721,
      "arliament": 1722,
      "burg": 1723,
      "though": 1724,
      "Ġsport": 1725,
      "Ġopened": 1726,
      "ius": 1727,
      "side": 1728,
      "xim": 1729,
      "Ġstand": 1730,
      "Ġ1996": 1731,
      "ble": 1732,
      "Ġlarge": 1733,
      "Ġprevious": 1734,
      "ĠAssociation": 1735,
      "Ġrev": 1736,
      "uitar": 1737,
      "Ġref": 1738,
      "ideo": 1739,
      "ministr": 1740,
      "Ġage": 1741,
      "ĠZeal": 1742,
      "Ġlanguage": 1743,
      "aving": 1744,
      "Ġroad": 1745,
      "Ġconsid": 1746,
      "ĠSch": 1747,
      "berg": 1748,
      "ĠWinter": 1749,
      "itt": 1750,
      "ĠZealand": 1751,
      "Ġlast": 1752,
      "ĠTr": 1753,
      "ago": 1754,
      "ĠRich": 1755,
      "ĠCentral": 1756,
      "Ġ186": 1757,
      "ĠSup": 1758,
      "aint": 1759,
      "ribut": 1760,
      "ĠJapanese": 1761,
      "osition": 1762,
      "ĠCath": 1763,
      "Ġla": 1764,
      "Ġworked": 1765,
      "ground": 1766,
      "ani": 1767,
      "ama": 1768,
      "ĠLife": 1769,
      "ĠMe": 1770,
      "na": 1771,
      "Ġ21": 1772,
      "ney": 1773,
      "ights": 1774,
      "Ġlate": 1775,
      "ection": 1776,
      "Ġ23": 1777,
      "ording": 1778,
      "ief": 1779,
      "ĠGo": 1780,
      "ĠTex": 1781,
      "Ġgener": 1782,
      "ox": 1783,
      "Ġport": 1784,
      "ĠAg": 1785,
      "ĠRes": 1786,
      "ival": 1787,
      "Ġstudio": 1788,
      "Ġeducation": 1789,
      "ple": 1790,
      "Ġmult": 1791,
      "bour": 1792,
      "Ġbusiness": 1793,
      "writ": 1794,
      "etwork": 1795,
      "ĠHow": 1796,
      "Ġdeveloped": 1797,
      "ĠHill": 1798,
      "Ġbroad": 1799,
      "Ġcontin": 1800,
      "Ġthem": 1801,
      "ety": 1802,
      "Ġ1997": 1803,
      "ĠLou": 1804,
      "avy": 1805,
      "ĠAmerica": 1806,
      "Ġpass": 1807,
      "Ġmark": 1808,
      "Ġnon": 1809,
      "Ġmoved": 1810,
      "Ġtr": 1811,
      "Ġleg": 1812,
      "de": 1813,
      "ĠPal": 1814,
      "Ġincludes": 1815,
      "BC": 1816,
      "ĠEuropean": 1817,
      "now": 1818,
      "Ġstarted": 1819,
      "ĠTurkey": 1820,
      "Ġ1998": 1821,
      "ently": 1822,
      "\")": 1823,
      "ĠJos": 1824,
      "Ġdiffer": 1825,
      "Ġvarious": 1826,
      "Ġevents": 1827,
      "ĠLab": 1828,
      "Ġeach": 1829,
      "Ġexp": 1830,
      "gin": 1831,
      "heast": 1832,
      "ĠCap": 1833,
      "aced": 1834,
      "ĠGeorge": 1835,
      "Ġdirected": 1836,
      "ones": 1837,
      "atin": 1838,
      "artment": 1839,
      "Ġtook": 1840,
      "Ġhum": 1841,
      "ody": 1842,
      "ĠAv": 1843,
      "int": 1844,
      "ĠMex": 1845,
      "Ġevent": 1846,
      "Ġactor": 1847,
      "Ã¸": 1848,
      "Ġsouthern": 1849,
      "Ġgenus": 1850,
      "ĠTown": 1851,
      "ĠThom": 1852,
      "ĠSal": 1853,
      "ĠBay": 1854,
      "Ġapproxim": 1855,
      "Ġ26": 1856,
      "inning": 1857,
      "Ġengine": 1858,
      "Ġbirth": 1859,
      "iven": 1860,
      "ĠDem": 1861,
      "ĠItalian": 1862,
      "ĠOne": 1863,
      "Ġ27": 1864,
      "ĠOlympic": 1865,
      "Ġcollect": 1866,
      "Ġincluded": 1867,
      "yle": 1868,
      "ively": 1869,
      "ĠWestern": 1870,
      "Ġyoun": 1871,
      "ĠQu": 1872,
      "ĠSk": 1873,
      "ander": 1874,
      "reg": 1875,
      "ĠSl": 1876,
      "Ġanc": 1877,
      "ricket": 1878,
      "ĠBer": 1879,
      "Ġgo": 1880,
      "Ġpopular": 1881,
      "Ġperiod": 1882,
      "Ġowned": 1883,
      "ison": 1884,
      "ĠChe": 1885,
      "Ġ22": 1886,
      "oon": 1887,
      "Ġjust": 1888,
      "ĠMor": 1889,
      "ĠChristian": 1890,
      "Ġnorthern": 1891,
      "med": 1892,
      "Ġlies": 1893,
      "ĠRoyal": 1894,
      "Ġtw": 1895,
      "ĠFrance": 1896,
      "Ġperson": 1897,
      "Ġ28": 1898,
      "itions": 1899,
      "Ġguitar": 1900,
      "Ġstar": 1901,
      "Ġreceived": 1902,
      "ula": 1903,
      "ĠUnion": 1904,
      "Ġpolitical": 1905,
      "ĠProvincial": 1906,
      "ourt": 1907,
      "Ġseat": 1908,
      "ause": 1909,
      "ĠRed": 1910,
      "Ġ(,": 1911,
      "Ġrole": 1912,
      "rag": 1913,
      "Ġgames": 1914,
      "wood": 1915,
      "itional": 1916,
      "omb": 1917,
      "ĠĠĠ": 1918,
      "12": 1919,
      "ink": 1920,
      "Ġagainst": 1921,
      "tal": 1922,
      "Ġhost": 1923,
      "ĠNe": 1924,
      "Ġperform": 1925,
      "Ġtop": 1926,
      "ti": 1927,
      "ria": 1928,
      "Ġbord": 1929,
      "Ġattended": 1930,
      "Ġepis": 1931,
      "Ġriver": 1932,
      "Ġ1960": 1933,
      "ocial": 1934,
      "ole": 1935,
      "Ġapproximately": 1936,
      "ĠBlack": 1937,
      "Ġgeneral": 1938,
      "irc": 1939,
      "Ġsl": 1940,
      "Ġside": 1941,
      "ĠMary": 1942,
      "Ġdr": 1943,
      "inal": 1944,
      "rol": 1945,
      "Ġrecorded": 1946,
      "Ġlab": 1947,
      "198": 1948,
      "iddle": 1949,
      "Ġbrother": 1950,
      "Ġcapital": 1951,
      "itz": 1952,
      "leg": 1953,
      "ĠVir": 1954,
      "Ġsituated": 1955,
      "itor": 1956,
      "conom": 1957,
      "hood": 1958,
      "rest": 1959,
      "ued": 1960,
      "Ġartist": 1961,
      "Ġwould": 1962,
      "Ġ1992": 1963,
      "Ġwater": 1964,
      "Ġcamp": 1965,
      "Ġcounty": 1966,
      "ĠBu": 1967,
      "Ġ2007": 1968,
      "Ġ1995": 1969,
      "ij": 1970,
      "ming": 1971,
      "Ġresp": 1972,
      "Ġsite": 1973,
      "Ġ1994": 1974,
      "Ġtechn": 1975,
      "Ġder": 1976,
      "Ġdirector": 1977,
      "ademy": 1978,
      "spap": 1979,
      "Ġcult": 1980,
      "ĠPaul": 1981,
      "Ġstudied": 1982,
      "line": 1983,
      "ĠGeorg": 1984,
      "ĠFlor": 1985,
      "ĠSummer": 1986,
      "ĠFranc": 1987,
      "ĠAct": 1988,
      "Ġneigh": 1989,
      "13": 1990,
      "ĠDep": 1991,
      "Ġ185": 1992,
      "ĠRobert": 1993,
      "ĠCatholic": 1994,
      "itect": 1995,
      "vention": 1996,
      "Ġvideo": 1997,
      "Ġservice": 1998,
      "Ġindepend": 1999,
      "ston": 2000,
      "ĠRh": 2001,
      "Ġplaying": 2002,
      "Ġimport": 2003,
      "ĠCharles": 2004,
      "ĠBal": 2005,
      "Ġ2010": 2006,
      "ĠArmy": 2007,
      "Ġspecial": 2008,
      "Ġany": 2009,
      "Ġcond": 2010,
      "Ġconnect": 2011,
      "attle": 2012,
      "oute": 2013,
      "Ġcentral": 2014,
      "ological": 2015,
      "Ġprovince": 2016,
      "Ġstat": 2017,
      "Ġhockey": 2018,
      "Ġ1993": 2019,
      "ĠTexas": 2020,
      "ĠList": 2021,
      "illion": 2022,
      "ĠScotland": 2023,
      "ĠLa": 2024,
      "ranch": 2025,
      "Ġprot": 2026,
      "Ġdifferent": 2027,
      "of": 2028,
      "ras": 2029,
      "ĠHen": 2030,
      "14": 2031,
      "ĠAlex": 2032,
      "ental": 2033,
      "ota": 2034,
      "Ġdeg": 2035,
      "Ġjourn": 2036,
      "Ġmen": 2037,
      "ports": 2038,
      "ĠRailway": 2039,
      "ĠSm": 2040,
      "ĠNot": 2041,
      "osp": 2042,
      "Ġproper": 2043,
      "annel": 2044,
      "pro": 2045,
      "uation": 2046,
      "Ġservices": 2047,
      "tain": 2048,
      "Ġbasketball": 2049,
      "Ġpost": 2050,
      "Ġaff": 2051,
      "eph": 2052,
      "ĠIr": 2053,
      "alf": 2054,
      "ictor": 2055,
      "Ġadministr": 2056,
      "23": 2057,
      "ya": 2058,
      "Ġconsidered": 2059,
      "istricts": 2060,
      "embly": 2061,
      "overnor": 2062,
      "Ġfict": 2063,
      "ĠDuring": 2064,
      "ida": 2065,
      "ili": 2066,
      "ĠPenn": 2067,
      "ĠWash": 2068,
      "Ġleft": 2069,
      "Ġval": 2070,
      "odes": 2071,
      "reland": 2072,
      "ĠFrom": 2073,
      "ĠEv": 2074,
      "Ġ1988": 2075,
      "Ġfinal": 2076,
      "eak": 2077,
      "ĠCommun": 2078,
      "yr": 2079,
      "eration": 2080,
      "ĠMiss": 2081,
      "Ġstudents": 2082,
      "Ġisland": 2083,
      "Ġdown": 2084,
      "ĠRoute": 2085,
      "ĠMil": 2086,
      "Ġ29": 2087,
      "urs": 2088,
      "hab": 2089,
      "aning": 2090,
      "thlet": 2091,
      "ffic": 2092,
      "Ġpower": 2093,
      "Ġ1991": 2094,
      "Ġchildren": 2095,
      "be": 2096,
      "Ġamong": 2097,
      "ĠCouncil": 2098,
      "ĠGr": 2099,
      "Ġstory": 2100,
      "Ġformerly": 2101,
      "ylv": 2102,
      "Ġelected": 2103,
      "ĠLouis": 2104,
      "ĠSwed": 2105,
      "ĠCor": 2106,
      "ĠDivision": 2107,
      "Ġwestern": 2108,
      "ĠMac": 2109,
      "Ġappeared": 2110,
      "ĠParliament": 2111,
      "Ġ2008": 2112,
      "Ġbuilding": 2113,
      "enth": 2114,
      "ĠPeople": 2115,
      "stitute": 2116,
      "ĠAlber": 2117,
      "Ġaut": 2118,
      "ĠAcc": 2119,
      "ĠIreland": 2120,
      "Ġvoc": 2121,
      "ĠItaly": 2122,
      "ishop": 2123,
      "ĠArt": 2124,
      "ĠMet": 2125,
      "ĠNorway": 2126,
      "ym": 2127,
      "ĠGreat": 2128,
      "Ġindust": 2129,
      "Ã§": 2130,
      "ĠUK": 2131,
      "Ġmedal": 2132,
      "ps": 2133,
      "ometimes": 2134,
      "ached": 2135,
      "Ġ2011": 2136,
      "ĠWashington": 2137,
      "ĠMass": 2138,
      "ĠBas": 2139,
      "Ġofficial": 2140,
      "ude": 2141,
      "ĠHistor": 2142,
      "ott": 2143,
      "ards": 2144,
      "azine": 2145,
      "ĠMag": 2146,
      "ĠJe": 2147,
      "Ġmodern": 2148,
      "ĠMinister": 2149,
      "Ġtimes": 2150,
      "ĠMichael": 2151,
      "ĠAfrica": 2152,
      "co": 2153,
      "Ġmilitary": 2154,
      "ories": 2155,
      "Ġareas": 2156,
      "ĠScottish": 2157,
      "ĠTV": 2158,
      "ription": 2159,
      "ÅŁ": 2160,
      "errit": 2161,
      "Ġnewspap": 2162,
      "ĠRepublic": 2163,
      "Ġrepl": 2164,
      "aid": 2165,
      "isl": 2166,
      "Ġgiven": 2167,
      "ĠWales": 2168,
      "ĠAcademy": 2169,
      "writer": 2170,
      "mit": 2171,
      "Ġmid": 2172,
      "ecut": 2173,
      "mar": 2174,
      "yd": 2175,
      "ining": 2176,
      "istan": 2177,
      "Ġ1989": 2178,
      "Ġequ": 2179,
      "ĠMusic": 2180,
      "ĠGreek": 2181,
      "ĠBack": 2182,
      "utch": 2183,
      "ogn": 2184,
      "Ġ31": 2185,
      "ĠAngel": 2186,
      "unc": 2187,
      "era": 2188,
      "Ġalbums": 2189,
      "ĠNorw": 2190,
      "Ġdescribed": 2191,
      "ream": 2192,
      "ĠBen": 2193,
      "eland": 2194,
      "ĠGreen": 2195,
      "Ġdesigned": 2196,
      "Ġversion": 2197,
      "ensus": 2198,
      "eek": 2199,
      "Ġdiv": 2200,
      "oll": 2201,
      "ĠPri": 2202,
      "Ġred": 2203,
      "Ġsol": 2204,
      "ĠPat": 2205,
      "ilver": 2206,
      "Ġserving": 2207,
      "30": 2208,
      "Ġav": 2209,
      "Ġaward": 2210,
      "Ġmusician": 2211,
      "time": 2212,
      "ĠLoc": 2213,
      "Ġancient": 2214,
      "ha": 2215,
      "also": 2216,
      "ĠArm": 2217,
      "ize": 2218,
      "ĠFirst": 2219,
      "press": 2220,
      "ĠNorthern": 2221,
      "Ġconc": 2222,
      "Ġleague": 2223,
      "Ġjoined": 2224,
      "ĠSen": 2225,
      "Ġeastern": 2226,
      "Ġphys": 2227,
      "Ġtype": 2228,
      "Ġsold": 2229,
      "ĠMont": 2230,
      "197": 2231,
      "Ġfootballer": 2232,
      "ari": 2233,
      "Ġrul": 2234,
      "Ġmount": 2235,
      "idge": 2236,
      "Ġworks": 2237,
      "uel": 2238,
      "arian": 2239,
      "vers": 2240,
      "Ġcoast": 2241,
      "Ġarchitect": 2242,
      "Ġever": 2243,
      "ociety": 2244,
      "ĠDon": 2245,
      "ĠRichard": 2246,
      "Ġcomb": 2247,
      "ĠVictor": 2248,
      "edy": 2249,
      "Ġactiv": 2250,
      "ĠCompany": 2251,
      "aim": 2252,
      "alth": 2253,
      "Ġfeatures": 2254,
      "CA": 2255,
      "serv": 2256,
      "ĠMart": 2257,
      "ĠMark": 2258,
      "Ġcame": 2259,
      "ona": 2260,
      "ĠFilm": 2261,
      "Ġproducer": 2262,
      "Ġcommonly": 2263,
      "Ġ1984": 2264,
      "flu": 2265,
      "ĠVirgin": 2266,
      "ĠLaw": 2267,
      "Ġthese": 2268,
      "ĠMunicipal": 2269,
      "ĠHighway": 2270,
      "esh": 2271,
      "ĠHam": 2272,
      "Ġstadium": 2273,
      "Ġ1982": 2274,
      "tario": 2275,
      "band": 2276,
      "Ġschools": 2277,
      "ĠGeneral": 2278,
      "igan": 2279,
      "Ġ1985": 2280,
      "ĠSam": 2281,
      "Ġstr": 2282,
      "Ġbeg": 2283,
      "ĠPlay": 2284,
      "Ġtyp": 2285,
      "eed": 2286,
      "ored": 2287,
      "ĠSir": 2288,
      "Ġ100": 2289,
      "ĠThomas": 2290,
      "Ġpoet": 2291,
      "Ġconstit": 2292,
      "uced": 2293,
      "Ġsuburb": 2294,
      "atic": 2295,
      "Ġanim": 2296,
      "irl": 2297,
      "ĠDi": 2298,
      "50": 2299,
      "Ġcross": 2300,
      "ĠGroup": 2301,
      "Ġinvolv": 2302,
      "ylvania": 2303,
      "ĠHall": 2304,
      "Ġgu": 2305,
      "Ġ1976": 2306,
      "ĠOntario": 2307,
      "oe": 2308,
      "ĠDen": 2309,
      "ĠInc": 2310,
      "Ġhig": 2311,
      "Ġ1979": 2312,
      "Ġactress": 2313,
      "ĠSaint": 2314,
      "ĠOrigin": 2315,
      "Ġdue": 2316,
      "Ġoperated": 2317,
      "Ġimportant": 2318,
      "Ġwar": 2319,
      "ĠTor": 2320,
      "Ġlive": 2321,
      "Ġsettle": 2322,
      "Ġfre": 2323,
      "Ġgl": 2324,
      "ĠHockey": 2325,
      "ĠLeg": 2326,
      "ma": 2327,
      "rab": 2328,
      "ein": 2329,
      "Ġbi": 2330,
      "anta": 2331,
      "ales": 2332,
      "Ġfac": 2333,
      "formation": 2334,
      "fact": 2335,
      "egian": 2336,
      "eh": 2337,
      "Ġtotal": 2338,
      "rap": 2339,
      "Ġcricket": 2340,
      "ĠBill": 2341,
      "Ġdet": 2342,
      "ĠJack": 2343,
      "ope": 2344,
      "unk": 2345,
      "ĠDr": 2346,
      "Ġ1972": 2347,
      "arily": 2348,
      "ĠInter": 2349,
      "aker": 2350,
      "ĠDev": 2351,
      "ĠLos": 2352,
      "Ġgraduated": 2353,
      "olution": 2354,
      "Ġprocess": 2355,
      "ĠBC": 2356,
      "ĠStud": 2357,
      "enue": 2358,
      "ament": 2359,
      "ampion": 2360,
      "Ġpriv": 2361,
      "ĠFrank": 2362,
      "Ġbroadcast": 2363,
      "aff": 2364,
      "Ġcivil": 2365,
      "ention": 2366,
      "Ġhold": 2367,
      "oor": 2368,
      "play": 2369,
      "asons": 2370,
      "ersey": 2371,
      "Ġ184": 2372,
      "Ġpartic": 2373,
      "Ġadv": 2374,
      "Ġfilms": 2375,
      "Ġcentre": 2376,
      "Ġsports": 2377,
      "ĠLine": 2378,
      "ruction": 2379,
      "ĠTrack": 2380,
      "ĠNorwegian": 2381,
      "ĠSing": 2382,
      "ĠRev": 2383,
      "Ġeff": 2384,
      "Ġlevel": 2385,
      "Ġpri": 2386,
      "ĠTrans": 2387,
      "Ġdistricts": 2388,
      "ĠChina": 2389,
      "Ġking": 2390,
      "ĠPenns": 2391,
      "Ġinit": 2392,
      "Ġiss": 2393,
      "Ġled": 2394,
      "aughter": 2395,
      "Ġhouse": 2396,
      "ĠSpanish": 2397,
      "Ġhighway": 2398,
      "oral": 2399,
      "unn": 2400,
      "Ġparish": 2401,
      "ĠFl": 2402,
      "iron": 2403,
      "oo": 2404,
      "ĠAward": 2405,
      "ilar": 2406,
      "ĠMel": 2407,
      "Ġ1964": 2408,
      "lic": 2409,
      "rated": 2410,
      "ĠMy": 2411,
      "ots": 2412,
      "Ġgreat": 2413,
      "acher": 2414,
      "Ġ1981": 2415,
      "zil": 2416,
      "Ġliter": 2417,
      "Ġ1986": 2418,
      "roll": 2419,
      "Ġsupport": 2420,
      "Ġdied": 2421,
      "Ġrest": 2422,
      "Ġusually": 2423,
      "Ġscience": 2424,
      "Ġintrod": 2425,
      ".,": 2426,
      "mark": 2427,
      "aly": 2428,
      "ĠMen": 2429,
      "ĠFed": 2430,
      "Ġ2009": 2431,
      "Ġconsist": 2432,
      "Ġproduct": 2433,
      "rd": 2434,
      "Ġeconom": 2435,
      "Ġ1977": 2436,
      "Ġserves": 2437,
      "Ġcr": 2438,
      "ĠKore": 2439,
      "ĠRock": 2440,
      "Ġcompos": 2441,
      "Ġ1983": 2442,
      "ĠPlot": 2443,
      "ĠRussian": 2444,
      "ĠValley": 2445,
      "ĠWith": 2446,
      "osaur": 2447,
      "board": 2448,
      "ĠPennsylvania": 2449,
      "Ġice": 2450,
      "Ġflow": 2451,
      "Ġpresident": 2452,
      "ĠChic": 2453,
      "Ġship": 2454,
      "Ġdevelopment": 2455,
      "ĠâĢĶ": 2456,
      "Ġ(),": 2457,
      "rey": 2458,
      "Ġconsists": 2459,
      "ĠMat": 2460,
      "ought": 2461,
      "Ġdegree": 2462,
      "oul": 2463,
      "ĠBy": 2464,
      "Ġren": 2465,
      "ĠArg": 2466,
      "Ġ(\"": 2467,
      "ocrat": 2468,
      "rama": 2469,
      "ĠUp": 2470,
      "Ġsongs": 2471,
      "Ġproject": 2472,
      "Ġhaving": 2473,
      "Ġnetwork": 2474,
      "ĠDutch": 2475,
      "ĠLiber": 2476,
      "ends": 2477,
      "Ġprovincial": 2478,
      "Ġorder": 2479,
      "Ġexper": 2480,
      "Ġpreviously": 2481,
      "Ġtour": 2482,
      "Ġepisode": 2483,
      "ness": 2484,
      "Ġacross": 2485,
      "ĠCarol": 2486,
      "ĠMad": 2487,
      "ĠDel": 2488,
      "Ġchurch": 2489,
      "atural": 2490,
      "Ġmanu": 2491,
      "Ġvery": 2492,
      "Ġ1975": 2493,
      "Ġbooks": 2494,
      "ĠAfrican": 2495,
      "11": 2496,
      "ĠKh": 2497,
      "ĠGeography": 2498,
      "atre": 2499,
      "Ġinhab": 2500,
      "ittle": 2501,
      "Ġ1987": 2502,
      "Ġreferred": 2503,
      "ware": 2504,
      "ination": 2505,
      "ced": 2506,
      "Ġnative": 2507,
      "ĠWil": 2508,
      "Ġcompeted": 2509,
      "ĠGames": 2510,
      "ĠEduc": 2511,
      "Ġfem": 2512,
      "ush": 2513,
      "Ġ1978": 2514,
      "ios": 2515,
      "alk": 2516,
      "ĠJersey": 2517,
      "Ġgold": 2518,
      "Ġelection": 2519,
      "hemat": 2520,
      "ĠHenry": 2521,
      "ared": 2522,
      "Ġday": 2523,
      "Ġlo": 2524,
      "Ġmother": 2525,
      "ĠCast": 2526,
      "Ã¤": 2527,
      "Ġhon": 2528,
      "Ġstruct": 2529,
      "ext": 2530,
      "ĠFound": 2531,
      "ense": 2532,
      "Ġchang": 2533,
      "Ġproduction": 2534,
      "ĠMexico": 2535,
      "tt": 2536,
      "iff": 2537,
      "Ġrepresented": 2538,
      "Ġpromot": 2539,
      "ĠJoseph": 2540,
      "Ġwe": 2541,
      "ĠOh": 2542,
      "ĠRegion": 2543,
      "Ġbody": 2544,
      "ĠPeter": 2545,
      "ength": 2546,
      "Ġwomen": 2547,
      "Ġcompetition": 2548,
      "Ġbre": 2549,
      "ĠMer": 2550,
      "ĠBest": 2551,
      "ishing": 2552,
      "ĠGrand": 2553,
      "ertain": 2554,
      "Ġphil": 2555,
      "most": 2556,
      "Ġ=": 2557,
      "Ġfull": 2558,
      "Ġ;": 2559,
      "ĠSov": 2560,
      "ett": 2561,
      "ians": 2562,
      "och": 2563,
      "Ġsw": 2564,
      "Ġge": 2565,
      "ĠIrish": 2566,
      "Ġfig": 2567,
      "bur": 2568,
      "ola": 2569,
      "over": 2570,
      "ellow": 2571,
      "Ġ1974": 2572,
      "cher": 2573,
      "ĠChicago": 2574,
      "TV": 2575,
      "Ġsometimes": 2576,
      "ĠCount": 2577,
      "Ġvis": 2578,
      "ĠArch": 2579,
      "ĠBrazil": 2580,
      "la": 2581,
      "Ġfun": 2582,
      "Ġ1950": 2583,
      "Ġbar": 2584,
      "Ġcomplet": 2585,
      "ĠYear": 2586,
      "Ġseven": 2587,
      "ĠIll": 2588,
      "rie": 2589,
      "Ġparts": 2590,
      "Ġbecome": 2591,
      "ĠAtl": 2592,
      "Ġassoci": 2593,
      "Ġes": 2594,
      "inese": 2595,
      "ĠFlorida": 2596,
      "cer": 2597,
      "ped": 2598,
      "epar": 2599,
      "Ġ1968": 2600,
      "Ġmagazine": 2601,
      "sy": 2602,
      "ality": 2603,
      "Ġdem": 2604,
      "ĠPak": 2605,
      "merc": 2606,
      "ĠEdward": 2607,
      "Ġindependent": 2608,
      "hest": 2609,
      "ĠServ": 2610,
      "ecutive": 2611,
      "ĠGold": 2612,
      "incip": 2613,
      "ĠCro": 2614,
      "ument": 2615,
      "Ġcomputer": 2616,
      "ĠInstitute": 2617,
      "hel": 2618,
      "ĠMill": 2619,
      "ront": 2620,
      "ĠMichigan": 2621,
      "Ġsimilar": 2622,
      "Ġpat": 2623,
      "une": 2624,
      "Ġ1973": 2625,
      "ensive": 2626,
      "ĠBackground": 2627,
      "eum": 2628,
      "Ġrecogn": 2629,
      "Ġteams": 2630,
      "forman": 2631,
      "ĠGovernment": 2632,
      "Ġround": 2633,
      "year": 2634,
      "ÄŁ": 2635,
      "Ġwent": 2636,
      "ĠEst": 2637,
      "Ġ1967": 2638,
      "Ġrace": 2639,
      "Ġhuman": 2640,
      "dis": 2641,
      "ugby": 2642,
      "ected": 2643,
      "Ġ1971": 2644,
      "Ġplayers": 2645,
      "gen": 2646,
      "Ġtransl": 2647,
      "ĠMajor": 2648,
      "Ġthroughout": 2649,
      "Ġlisting": 2650,
      "Ġmanufact": 2651,
      "Ġi": 2652,
      "Ġhalf": 2653,
      "ĠOld": 2654,
      "Ġ183": 2655,
      "ĠDu": 2656,
      "ĠPresident": 2657,
      "Ġnort": 2658,
      "Ġsour": 2659,
      "ĠVirginia": 2660,
      "tra": 2661,
      "ĠBur": 2662,
      "Ġdel": 2663,
      "Ġrange": 2664,
      "Ġwife": 2665,
      "ĠCarl": 2666,
      "Ġelev": 2667,
      "ĠAccording": 2668,
      "gy": 2669,
      "Ġdaughter": 2670,
      "ĠNavy": 2671,
      "ĠEr": 2672,
      "Ġ2012": 2673,
      "Ġresearch": 2674,
      "arch": 2675,
      "Ġpres": 2676,
      "ĠWhen": 2677,
      "Ġeight": 2678,
      "Ġpract": 2679,
      "ĠBow": 2680,
      "Ġlim": 2681,
      "aut": 2682,
      "Ġprop": 2683,
      "ethod": 2684,
      "rote": 2685,
      "ĠSince": 2686,
      "urp": 2687,
      "Ġreturn": 2688,
      "Ġsepar": 2689,
      "Ġselect": 2690,
      "ĠIslands": 2691,
      "Ġopp": 2692,
      "ably": 2693,
      "Ġmodel": 2694,
      "ĠAngeles": 2695,
      "olf": 2696,
      "ĠKent": 2697,
      "ĠSoviet": 2698,
      "ms": 2699,
      "ule": 2700,
      "based": 2701,
      "back": 2702,
      "ĠSim": 2703,
      "Ġvol": 2704,
      "Ġusing": 2705,
      "Ġpain": 2706,
      "Ġdid": 2707,
      "Ġyoung": 2708,
      "Ġsqu": 2709,
      "read": 2710,
      "Ġexist": 2711,
      "Ġcontains": 2712,
      "60": 2713,
      "Ġstudy": 2714,
      "Ġbecause": 2715,
      "Ġrelease": 2716,
      "ĠPlaces": 2717,
      "Ġsout": 2718,
      "road": 2719,
      "Ġmeaning": 2720,
      "Ġprimarily": 2721,
      "Ġ1965": 2722,
      "Ġlabel": 2723,
      "ique": 2724,
      "Ġturn": 2725,
      "ĠMin": 2726,
      "ĠAssembly": 2727,
      "view": 2728,
      "lete": 2729,
      "rain": 2730,
      "off": 2731,
      "Ġcrit": 2732,
      "ĠOver": 2733,
      "Ġ1969": 2734,
      "ambig": 2735,
      "Ġstill": 2736,
      "Ġcirc": 2737,
      "ĠSouthern": 2738,
      "ĠProfess": 2739,
      "itan": 2740,
      "ĠPopul": 2741,
      "ĠFred": 2742,
      "urname": 2743,
      "ĠJunior": 2744,
      "mier": 2745,
      "Ġdi": 2746,
      "eck": 2747,
      "25": 2748,
      "rian": 2749,
      "arth": 2750,
      "Ġweb": 2751,
      "ĠSea": 2752,
      "ĠDepartment": 2753,
      "Ġbaseball": 2754,
      "Ġmillion": 2755,
      "Ġworking": 2756,
      "Ġmater": 2757,
      "Ġele": 2758,
      "Ġinflu": 2759,
      "ĠLu": 2760,
      "Ġexpl": 2761,
      "ĠChampionships": 2762,
      "den": 2763,
      "ada": 2764,
      "ologist": 2765,
      "Ġ2013": 2766,
      "Ġcenter": 2767,
      "Ġmeans": 2768,
      "Ġright": 2769,
      "Ġparticip": 2770,
      "ification": 2771,
      "Ġorganization": 2772,
      "Ġtraditional": 2773,
      "Ġmarried": 2774,
      "Ġborder": 2775,
      "gar": 2776,
      "Ġsen": 2777,
      "Ġsound": 2778,
      "Ġhow": 2779,
      "eter": 2780,
      "ops": 2781,
      "ĠArts": 2782,
      "BA": 2783,
      "ties": 2784,
      "ye": 2785,
      "Ġ/": 2786,
      "Ġhand": 2787,
      "ĠDay": 2788,
      "ĠOl": 2789,
      "Ġresult": 2790,
      "Ġprivate": 2791,
      "yth": 2792,
      "ĠLand": 2793,
      "Ġ2014": 2794,
      "Ġword": 2795,
      "Ġstates": 2796,
      "ĠJew": 2797,
      "Ġplaces": 2798,
      "app": 2799,
      "Ġbound": 2800,
      "Ġparty": 2801,
      "ĠOhio": 2802,
      ".\"": 2803,
      "li": 2804,
      "ĠAwards": 2805,
      "Ġlight": 2806,
      "ours": 2807,
      "ĠVer": 2808,
      "ending": 2809,
      "ances": 2810,
      "ĠGeorgia": 2811,
      "ambiguation": 2812,
      "ĠFre": 2813,
      "ĠHowever": 2814,
      "mercial": 2815,
      "ĠMic": 2816,
      "Ġthose": 2817,
      "Ġwhose": 2818,
      "ects": 2819,
      "Ġmot": 2820,
      "ĠEmp": 2821,
      "quar": 2822,
      "Ġearl": 2823,
      "ĠChinese": 2824,
      "40": 2825,
      "cy": 2826,
      "omer": 2827,
      "aining": 2828,
      "Ġwid": 2829,
      "elling": 2830,
      "Ġmetal": 2831,
      "ĠSecond": 2832,
      "ĠLabour": 2833,
      "ges": 2834,
      "Ġten": 2835,
      "ĠCenter": 2836,
      "ĠOther": 2837,
      "ocus": 2838,
      "iers": 2839,
      "Ġbank": 2840,
      "ĠStar": 2841,
      "Ġ1963": 2842,
      "ĠSpain": 2843,
      "ĠParis": 2844,
      "cle": 2845,
      "Ġlisted": 2846,
      "Ġmarket": 2847,
      "etts": 2848,
      "raw": 2849,
      "alls": 2850,
      "ape": 2851,
      "Ġmusical": 2852,
      "Ġruns": 2853,
      "Ġmathemat": 2854,
      "Ġbirths": 2855,
      "aries": 2856,
      "Ġchem": 2857,
      "Ġchart": 2858,
      "atory": 2859,
      "ĠGra": 2860,
      "ĠVill": 2861,
      "Ġchampionship": 2862,
      "Ġoffice": 2863,
      "ĠBook": 2864,
      "ases": 2865,
      "ĠApp": 2866,
      "ults": 2867,
      "ĠEducation": 2868,
      "Ġhel": 2869,
      "empor": 2870,
      "ĠCont": 2871,
      "Ġadministrative": 2872,
      "ĠTom": 2873,
      "ĠAk": 2874,
      "achus": 2875,
      "oz": 2876,
      "Ġdoc": 2877,
      "Ġallow": 2878,
      "Ġrelig": 2879,
      "ĠSuper": 2880,
      "ala": 2881,
      "Ġfact": 2882,
      "ĠCourt": 2883,
      "ronze": 2884,
      "ĠÃĩ": 2885,
      "icle": 2886,
      "Ġfew": 2887,
      "Ġestablish": 2888,
      "ĠHistoric": 2889,
      "erry": 2890,
      "rial": 2891,
      "ĠElect": 2892,
      "ĠWhite": 2893,
      "right": 2894,
      "âĢĻ": 2895,
      "Ġ2020": 2896,
      "uz": 2897,
      "Ġtog": 2898,
      "ĠKar": 2899,
      "Ġ1966": 2900,
      "Ġgrow": 2901,
      "ĠCarolina": 2902,
      "ivid": 2903,
      "Ġmostly": 2904,
      "Ġcensus": 2905,
      "Ġseasons": 2906,
      "ĠDemocrat": 2907,
      "ado": 2908,
      "Ġfif": 2909,
      "Ġsocial": 2910,
      "Ġpoint": 2911,
      "ĠArab": 2912,
      "urd": 2913,
      "aya": 2914,
      "ĠBelg": 2915,
      "western": 2916,
      "ĠÅ": 2917,
      "erous": 2918,
      "ids": 2919,
      "Ġcountries": 2920,
      "disambiguation": 2921,
      "Ġtogether": 2922,
      "lam": 2923,
      "uns": 2924,
      "Ġmix": 2925,
      "Ġlic": 2926,
      "Ġlike": 2927,
      "Ġstage": 2928,
      "inois": 2929,
      "ua": 2930,
      "Ġcor": 2931,
      "inary": 2932,
      "Ġlow": 2933,
      "ĠKong": 2934,
      "Ġconstitu": 2935,
      "achusetts": 2936,
      "Ġz": 2937,
      "Ġtourn": 2938,
      "ither": 2939,
      "ĠWe": 2940,
      "Ġprofessor": 2941,
      "orporated": 2942,
      "Amer": 2943,
      "mon": 2944,
      "Ġeth": 2945,
      "ĠCamp": 2946,
      "ĠFort": 2947,
      "Ġ2016": 2948,
      "isco": 2949,
      "ini": 2950,
      "Ġsch": 2951,
      "Ġposs": 2952,
      "ĠPe": 2953,
      "ĠWood": 2954,
      "Ġfocus": 2955,
      "ĠAre": 2956,
      "Ġfourth": 2957,
      "ror": 2958,
      "itive": 2959,
      "ams": 2960,
      "apt": 2961,
      "azz": 2962,
      "ĠIllinois": 2963,
      "less": 2964,
      "nes": 2965,
      "ĠMa": 2966,
      "ĠBoy": 2967,
      "ateg": 2968,
      "ĠAsia": 2969,
      "Ġdivision": 2970,
      "Ġsettlement": 2971,
      "rick": 2972,
      "ask": 2973,
      "ointed": 2974,
      "Ġterrit": 2975,
      "ĠThese": 2976,
      "ells": 2977,
      "Ġground": 2978,
      "aken": 2979,
      "quently": 2980,
      "Ġeditor": 2981,
      "Ġfeatured": 2982,
      "Ġperformed": 2983,
      "ĠMassachusetts": 2984,
      "Ġsilver": 2985,
      "Ġfamous": 2986,
      "burgh": 2987,
      "Ġstyle": 2988,
      "craft": 2989,
      "ĠCong": 2990,
      "ĠMid": 2991,
      "ĠForce": 2992,
      "ĠPoland": 2993,
      "ĠRob": 2994,
      "ĠLatin": 2995,
      "oice": 2996,
      "ĠPac": 2997,
      "ploy": 2998,
      "Ġperforman": 2999,
      "mond": 3000,
      "ĠCat": 3001,
      "Ġmuch": 3002,
      "estival": 3003,
      "ĠAlthough": 3004,
      "Ġ1961": 3005,
      "24": 3006,
      "Ġwrote": 3007,
      "ĠStev": 3008,
      "ĠSociety": 3009,
      "Ġneighbor": 3010,
      "Ġphilos": 3011,
      "Ġinf": 3012,
      "Ġleading": 3013,
      "Ã³n": 3014,
      "ĠArgent": 3015,
      "iation": 3016,
      "Ġalthough": 3017,
      "Ġ1940": 3018,
      "ĠBridge": 3019,
      "ning": 3020,
      "ĠBattle": 3021,
      "Ġdrama": 3022,
      "ĠIm": 3023,
      "oming": 3024,
      "Ġ2021": 3025,
      "Ġplays": 3026,
      "ĠYou": 3027,
      "Ġsuccessful": 3028,
      "Ġmaterial": 3029,
      "gress": 3030,
      "ration": 3031,
      "Åį": 3032,
      "ĠSports": 3033,
      "ĠPan": 3034,
      "Ġchampion": 3035,
      "Ġ1948": 3036,
      "Ġphot": 3037,
      "Ġretired": 3038,
      "ĠWhile": 3039,
      "bury": 3040,
      "Ġ2015": 3041,
      "St": 3042,
      "aters": 3043,
      "airs": 3044,
      "Ġbelong": 3045,
      "iol": 3046,
      "icated": 3047,
      "idae": 3048,
      "known": 3049,
      "ray": 3050,
      "Ġ40": 3051,
      "ĠConvention": 3052,
      "orporation": 3053,
      "ĠMos": 3054,
      "ĠMod": 3055,
      "ura": 3056,
      "ĠBrown": 3057,
      "wick": 3058,
      "orough": 3059,
      "ati": 3060,
      "adel": 3061,
      "196": 3062,
      "Ġactive": 3063,
      "Ġprincip": 3064,
      "Ġdrum": 3065,
      "ĠUnivers": 3066,
      "atter": 3067,
      "Ġbass": 3068,
      "Ġminist": 3069,
      "ĠBaseball": 3070,
      "iding": 3071,
      "ĠEmpire": 3072,
      "bl": 3073,
      "ĠFin": 3074,
      "Ġinhabit": 3075,
      "American": 3076,
      "ĠMu": 3077,
      "idence": 3078,
      "ump": 3079,
      "Ġwhat": 3080,
      "Ġsee": 3081,
      "Ġ1945": 3082,
      "Ġsurround": 3083,
      "century": 3084,
      "Ġident": 3085,
      "here": 3086,
      "Ġleader": 3087,
      "viron": 3088,
      "inct": 3089,
      "ĠAp": 3090,
      "Ġgrew": 3091,
      "Ġpred": 3092,
      "ĠPolish": 3093,
      "Ġcomposer": 3094,
      "tic": 3095,
      "Äģ": 3096,
      "Å¡": 3097,
      "asc": 3098,
      "Ġscient": 3099,
      "Ġwinn": 3100,
      "ĠPublic": 3101,
      "Ġhous": 3102,
      "Ġcomedy": 3103,
      "bre": 3104,
      "isher": 3105,
      "ĠSar": 3106,
      "Ġearn": 3107,
      "Ġ1959": 3108,
      "ftware": 3109,
      "Ġrefers": 3110,
      "ĠSmith": 3111,
      "yp": 3112,
      "Ġenc": 3113,
      "ising": 3114,
      "ĠHot": 3115,
      "oms": 3116,
      "ipl": 3117,
      "Ġteacher": 3118,
      "Ġ50": 3119,
      "ĠBroad": 3120,
      "ply": 3121,
      "uff": 3122,
      "ĠBul": 3123,
      "omy": 3124,
      "Ġ2019": 3125,
      "193": 3126,
      "iety": 3127,
      "Ġnewspaper": 3128,
      "Ch": 3129,
      "ĠForm": 3130,
      "Ġcast": 3131,
      "ĠLiving": 3132,
      "Ġaccess": 3133,
      "ansas": 3134,
      "Ġinstrum": 3135,
      "ote": 3136,
      "Ġcommercial": 3137,
      "Ġstations": 3138,
      "2022": 3139,
      "ounced": 3140,
      "Ġhighest": 3141,
      "28": 3142,
      "gl": 3143,
      "ged": 3144,
      "ores": 3145,
      "ĠOs": 3146,
      "ender": 3147,
      "Ġ1962": 3148,
      "ĠRegister": 3149,
      "Ġmonth": 3150,
      "Ġmountain": 3151,
      "town": 3152,
      "ĠMiddle": 3153,
      "ĠPortug": 3154,
      "ves": 3155,
      "yer": 3156,
      "Ġnatural": 3157,
      "antic": 3158,
      "Ġroles": 3159,
      "Ġ1956": 3160,
      "head": 3161,
      "inent": 3162,
      "Ġweek": 3163,
      "itude": 3164,
      "ĠAthlet": 3165,
      "olar": 3166,
      "Ġplant": 3167,
      "Ġspent": 3168,
      "ĠOrgan": 3169,
      "ĠQueens": 3170,
      "ky": 3171,
      "Ġposition": 3172,
      "ests": 3173,
      "ĠKn": 3174,
      "ĠMunicipality": 3175,
      "oma": 3176,
      "Ġsystems": 3177,
      "ropol": 3178,
      "27": 3179,
      "Ġlength": 3180,
      "Ġroute": 3181,
      "ĠSlov": 3182,
      "ĠTro": 3183,
      "Ġblack": 3184,
      "Ġcomposed": 3185,
      "ĠMartin": 3186,
      "ĠBang": 3187,
      "enz": 3188,
      "zech": 3189,
      "lim": 3190,
      "ÅĤ": 3191,
      "ingu": 3192,
      "ularly": 3193,
      "ĠAnn": 3194,
      "Ġ1957": 3195,
      "Ġconduct": 3196,
      "ĠSqu": 3197,
      "Ġmale": 3198,
      "Ġfigure": 3199,
      "icles": 3200,
      "Ġdu": 3201,
      "Ġrelated": 3202,
      "Ġbeh": 3203,
      "Ġ2018": 3204,
      "Ġ1930": 3205,
      "ano": 3206,
      "Ġbranch": 3207,
      "ĠGovernor": 3208,
      "opher": 3209,
      "ference": 3210,
      "194": 3211,
      "men": 3212,
      "Ġnotable": 3213,
      "Ġprimary": 3214,
      "Ġfri": 3215,
      "Ġlived": 3216,
      "Ġnames": 3217,
      "elled": 3218,
      "ĠClass": 3219,
      "ĠRussia": 3220,
      "Ġfounder": 3221,
      "Ġmainly": 3222,
      "Ġentire": 3223,
      "ĠVictoria": 3224,
      "da": 3225,
      "face": 3226,
      "heastern": 3227,
      "ĠDou": 3228,
      "Ġwill": 3229,
      "Ġhor": 3230,
      "itch": 3231,
      "chiev": 3232,
      "Ġoldest": 3233,
      "Ġmanager": 3234,
      "26": 3235,
      "Ġsurname": 3236,
      "ĠEastern": 3237,
      "Ġsuper": 3238,
      "Ġproperties": 3239,
      "ead": 3240,
      "Ġmaking": 3241,
      "ĠMain": 3242,
      "amily": 3243,
      "Ġkill": 3244,
      "ĠAlb": 3245,
      "Ġexamp": 3246,
      "ĠProd": 3247,
      "Ġappointed": 3248,
      "Ġaddition": 3249,
      "ĠAlexander": 3250,
      "ĠPakistan": 3251,
      "bec": 3252,
      "ker": 3253,
      "mb": 3254,
      "Ġsigned": 3255,
      "Ġintroduced": 3256,
      "ette": 3257,
      "Ġ2017": 3258,
      "Ġanother": 3259,
      "ĠSpr": 3260,
      "Ġclose": 3261,
      "ki": 3262,
      "lar": 3263,
      "ĠHong": 3264,
      "Ġhit": 3265,
      "Ġvia": 3266,
      "udd": 3267,
      "Ġ1947": 3268,
      "ested": 3269,
      "ĠProt": 3270,
      "ĠTo": 3271,
      "Ġmention": 3272,
      "ĠBa": 3273,
      "ĠWork": 3274,
      "rade": 3275,
      "ĠDef": 3276,
      "ittee": 3277,
      "ĠSwedish": 3278,
      "29": 3279,
      "ĠWomen": 3280,
      "Ġspeed": 3281,
      "heim": 3282,
      "Ġtrib": 3283,
      "ĠMah": 3284,
      "Ġabove": 3285,
      "Ġoccup": 3286,
      "Ġinformation": 3287,
      "Ġ1920": 3288,
      "Ġsyn": 3289,
      "Ġindivid": 3290,
      "cription": 3291,
      "wan": 3292,
      "Ġsem": 3293,
      "Ġ1953": 3294,
      "Ġevery": 3295,
      "sych": 3296,
      "emor": 3297,
      "Ġaltern": 3298,
      "urban": 3299,
      "Ġbrand": 3300,
      "lear": 3301,
      "Ġrequ": 3302,
      "Ġran": 3303,
      "Ġaffili": 3304,
      "hi": 3305,
      "Ġgrand": 3306,
      "Ġ1958": 3307,
      "Ġfarm": 3308,
      "ĠHaw": 3309,
      "Ġjun": 3310,
      "Ġofficer": 3311,
      "AS": 3312,
      "bon": 3313,
      "ĠCreek": 3314,
      "ĠDo": 3315,
      "ĠHead": 3316,
      "Ġnorthwest": 3317,
      "Ġtracks": 3318,
      "ĠSub": 3319,
      "ĠSev": 3320,
      "Ġmerg": 3321,
      "Ġcomplex": 3322,
      "Ġgroups": 3323,
      "Ġgenerally": 3324,
      "80": 3325,
      "ĠSa": 3326,
      "ĠCzech": 3327,
      "ĠRos": 3328,
      "ulf": 3329,
      "Ġbox": 3330,
      "ĠWind": 3331,
      "ĠKe": 3332,
      "Ġ1943": 3333,
      "Ġcoll": 3334,
      "ĠIII": 3335,
      "Ġstarring": 3336,
      "atform": 3337,
      "ĠMo": 3338,
      "Ġ1955": 3339,
      "atives": 3340,
      "Ġcred": 3341,
      "ĠBern": 3342,
      "anded": 3343,
      "Ġconf": 3344,
      "Ġspace": 3345,
      "lad": 3346,
      "ĠTre": 3347,
      "ĠMost": 3348,
      "Ġbronze": 3349,
      "ĠJust": 3350,
      "bert": 3351,
      "ĠPrince": 3352,
      "ĠTechn": 3353,
      "Ġsurv": 3354,
      "islative": 3355,
      "vironment": 3356,
      "rael": 3357,
      "Ġtex": 3358,
      "Ġ1946": 3359,
      "ĠCoast": 3360,
      "Ġcover": 3361,
      "ĠGoi": 3362,
      "Ġinhabitants": 3363,
      "II": 3364,
      "eel": 3365,
      "like": 3366,
      "ĠSur": 3367,
      "istic": 3368,
      "Ġkey": 3369,
      "ĠSyd": 3370,
      "Ġdiscov": 3371,
      "ĠFrancisco": 3372,
      "emporary": 3373,
      "Ġbridge": 3374,
      "ĠCorn": 3375,
      "Ġ0": 3376,
      "Ġfree": 3377,
      "Ġcould": 3378,
      "Ġmake": 3379,
      "ential": 3380,
      "Ġparents": 3381,
      "ux": 3382,
      "ita": 3383,
      "ĠTim": 3384,
      "ĠGre": 3385,
      "Ġreached": 3386,
      "ership": 3387,
      "aval": 3388,
      "Ġlocation": 3389,
      "Ġunit": 3390,
      "Ġunion": 3391,
      "Ġsenior": 3392,
      "ĠBre": 3393,
      "unt": 3394,
      "site": 3395,
      "Ã¢": 3396,
      "Ġcat": 3397,
      "Ġpast": 3398,
      "Ġda": 3399,
      "Ġdou": 3400,
      "ĠIran": 3401,
      "ourse": 3402,
      "ĠAvenue": 3403,
      "ĠOriginally": 3404,
      "adelph": 3405,
      "isation": 3406,
      "ilities": 3407,
      "ache": 3408,
      "Ġothers": 3409,
      "Ġmunicipalities": 3410,
      "Ġmeas": 3411,
      "bro": 3412,
      "ele": 3413,
      "va": 3414,
      "ailable": 3415,
      "ĠBlue": 3416,
      "ĠPen": 3417,
      "Ġuses": 3418,
      "Ġheadquar": 3419,
      "ĠMinn": 3420,
      "ĠJr": 3421,
      "Ġfemale": 3422,
      "ng": 3423,
      "yo": 3424,
      "ĠSome": 3425,
      "ĠBig": 3426,
      "Ġrank": 3427,
      "aka": 3428,
      "Ġcontrol": 3429,
      "Ã¼r": 3430,
      "ĠAirport": 3431,
      "inet": 3432,
      "Ġtheory": 3433,
      "ĠBob": 3434,
      "ĠDa": 3435,
      "ensed": 3436,
      "Ġuniversity": 3437,
      "Ġstudent": 3438,
      "Ġforms": 3439,
      "stitution": 3440,
      "Ġgradu": 3441,
      "ĠHel": 3442,
      "iana": 3443,
      "adelphia": 3444,
      "lit": 3445,
      "ela": 3446,
      "ĠRadio": 3447,
      "urt": 3448,
      "Ġ1949": 3449,
      "Ġmulti": 3450,
      "Ġtournament": 3451,
      "Ġcy": 3452,
      "195": 3453,
      "Ġfeature": 3454,
      "ĠIndiana": 3455,
      "Ġobject": 3456,
      "ĠSydney": 3457,
      "nic": 3458,
      "ĠLove": 3459,
      "ows": 3460,
      "ills": 3461,
      "abeth": 3462,
      "ricult": 3463,
      "ickn": 3464,
      "Ġsingles": 3465,
      "wh": 3466,
      "Ġwin": 3467,
      "Ġmethod": 3468,
      "ĠBus": 3469,
      "ĠLee": 3470,
      "enced": 3471,
      "Ġfictional": 3472,
      "rant": 3473,
      "asy": 3474,
      "Ġreal": 3475,
      "iment": 3476,
      "igned": 3477,
      "Ġcharacters": 3478,
      "Ġassociated": 3479,
      "ĠHung": 3480,
      "Ġcompil": 3481,
      "former": 3482,
      "ĠÄ": 3483,
      "Ġly": 3484,
      "thur": 3485,
      "ements": 3486,
      "Ġscreen": 3487,
      "erve": 3488,
      "hens": 3489,
      "Ġsea": 3490,
      "iate": 3491,
      "Ġway": 3492,
      "ctor": 3493,
      "ĠNether": 3494,
      "Ġcollection": 3495,
      "Ġjournalist": 3496,
      "ĠHum": 3497,
      "Ġsett": 3498,
      "Ġemploy": 3499,
      "70": 3500,
      "Ġins": 3501,
      "rel": 3502,
      "Ġpeak": 3503,
      "ĠCam": 3504,
      "stein": 3505,
      "Ġhard": 3506,
      "imate": 3507,
      "Ġ1952": 3508,
      "Ġraised": 3509,
      "ĠPhiladelphia": 3510,
      "Ġderived": 3511,
      "ĠPacific": 3512,
      "ĠMot": 3513,
      "Ġkil": 3514,
      "aching": 3515,
      "iro": 3516,
      "ny": 3517,
      "anian": 3518,
      "Ġsister": 3519,
      "Ġthough": 3520,
      "Ġelectron": 3521,
      "Ġmovement": 3522,
      "ĠBrook": 3523,
      "ergy": 3524,
      "Ġvocals": 3525,
      "ĠCamb": 3526,
      "ils": 3527,
      "Ġdest": 3528,
      "Ġnumerous": 3529,
      "Ġdocument": 3530,
      "Ġcur": 3531,
      "ĠLong": 3532,
      "ograp": 3533,
      "par": 3534,
      "Ġill": 3535,
      "Ġmiss": 3536,
      "ĠGod": 3537,
      "Ġseen": 3538,
      "Ġentered": 3539,
      "Ġavailable": 3540,
      "ributed": 3541,
      "Ġachiev": 3542,
      "ĠLim": 3543,
      "ira": 3544,
      "Ġassist": 3545,
      "Ġincre": 3546,
      "ca": 3547,
      "ators": 3548,
      "istics": 3549,
      "anding": 3550,
      "ĠIslam": 3551,
      "ĠSystem": 3552,
      "ĠQueen": 3553,
      "AA": 3554,
      "well": 3555,
      "Ġsection": 3556,
      "ĠHa": 3557,
      "Ġ180": 3558,
      "ospital": 3559,
      "esota": 3560,
      "ĠTwo": 3561,
      "ĠTheir": 3562,
      "ĠDis": 3563,
      "Ġcomic": 3564,
      "ibr": 3565,
      "Ġvariety": 3566,
      "Ġhistorical": 3567,
      "Ġfiction": 3568,
      "ĠJewish": 3569,
      "min": 3570,
      "uf": 3571,
      "Ġcode": 3572,
      "ĠDescription": 3573,
      "unched": 3574,
      "ko": 3575,
      "Ġfar": 3576,
      "ĠJul": 3577,
      "ĠVol": 3578,
      "190": 3579,
      "Ġmayor": 3580,
      "Ã©e": 3581,
      "ĠSpec": 3582,
      "ĠMinnesota": 3583,
      "win": 3584,
      "iles": 3585,
      "Ġjud": 3586,
      "Ġeducated": 3587,
      "retary": 3588,
      "Ġconstruct": 3589,
      "ĠCD": 3590,
      "ĠUr": 3591,
      "awa": 3592,
      "ucky": 3593,
      "ĠDemocratic": 3594,
      "ropolitan": 3595,
      "Ġtaken": 3596,
      "eds": 3597,
      "ĠGh": 3598,
      "ĠFol": 3599,
      "Ġplatform": 3600,
      "ĠMountains": 3601,
      "Ġwide": 3602,
      "occer": 3603,
      "utes": 3604,
      "Ġ1951": 3605,
      "iction": 3606,
      "Ġminor": 3607,
      "Ġcovers": 3608,
      "fit": 3609,
      "onto": 3610,
      "Ġview": 3611,
      "Ġmentioned": 3612,
      "iqu": 3613,
      "ĠSong": 3614,
      "ĠGame": 3615,
      "ĠJo": 3616,
      "ĠIsrael": 3617,
      "Ġreplaced": 3618,
      "Ġwinning": 3619,
      "ĠSun": 3620,
      "ĠAnt": 3621,
      "ĠEnter": 3622,
      "ribution": 3623,
      "Ġaired": 3624,
      "Ġinvolved": 3625,
      "Ġel": 3626,
      "Ġpe": 3627,
      "Ġeither": 3628,
      "Ġacqu": 3629,
      "Ġstudies": 3630,
      "Ġindustry": 3631,
      "Ġnext": 3632,
      "ĠEarl": 3633,
      "teen": 3634,
      "ĠConst": 3635,
      "wa": 3636,
      "Ġsum": 3637,
      "ĠTour": 3638,
      "urther": 3639,
      "ava": 3640,
      "aves": 3641,
      "ĠUnder": 3642,
      "Ġrac": 3643,
      "Ġ1942": 3644,
      "Ġsubse": 3645,
      "Ġguitarist": 3646,
      "Ġrules": 3647,
      "Ġcompleted": 3648,
      "gow": 3649,
      "Ġ#": 3650,
      "chan": 3651,
      "ĠUt": 3652,
      "urpose": 3653,
      "east": 3654,
      "ĠTenn": 3655,
      "ĠCa": 3656,
      "ĠCr": 3657,
      "ĠCivil": 3658,
      "Ġdyn": 3659,
      "opp": 3660,
      "Ġacadem": 3661,
      "Ġfollowed": 3662,
      "Ġdivided": 3663,
      "iences": 3664,
      "met": 3665,
      "nia": 3666,
      "ĠTok": 3667,
      "Ġlake": 3668,
      "Ġformat": 3669,
      "Ġconstruction": 3670,
      "pec": 3671,
      "ĠJim": 3672,
      "riz": 3673,
      "Ġclos": 3674,
      "Ġ1954": 3675,
      "Ã¡s": 3676,
      "Ġhistoric": 3677,
      "part": 3678,
      "arg": 3679,
      "igital": 3680,
      "ĠKir": 3681,
      "acy": 3682,
      "ĠVi": 3683,
      "ĠAustria": 3684,
      "erland": 3685,
      "Ġcities": 3686,
      "Ġdata": 3687,
      "Ġread": 3688,
      "Ġwhite": 3689,
      "ĠRegional": 3690,
      "bourne": 3691,
      "ĠNetherlands": 3692,
      "BS": 3693,
      "found": 3694,
      "Ã¨": 3695,
      "ĠSanta": 3696,
      "umn": 3697,
      "ĠService": 3698,
      "za": 3699,
      "rog": 3700,
      "ĠOper": 3701,
      "ective": 3702,
      "Ġautom": 3703,
      "Ġaud": 3704,
      "ĠCorporation": 3705,
      "chester": 3706,
      "Ġmiles": 3707,
      "hib": 3708,
      "Ġtem": 3709,
      "Ġmatches": 3710,
      "erick": 3711,
      "ĠBol": 3712,
      "Ġded": 3713,
      "ocese": 3714,
      "Ġchannel": 3715,
      "Ġlanguages": 3716,
      "Ġstandard": 3717,
      "Ġmultip": 3718,
      "ĠTownship": 3719,
      "col": 3720,
      "Ġsent": 3721,
      "Ġant": 3722,
      "ĠTam": 3723,
      "ĠWay": 3724,
      "class": 3725,
      "Ġ1938": 3726,
      "Ġsouthwest": 3727,
      "Ġmanaged": 3728,
      "ĠHal": 3729,
      "Ġartists": 3730,
      "ĠKorea": 3731,
      "no": 3732,
      "onia": 3733,
      "ises": 3734,
      "ĠOx": 3735,
      "Ġconv": 3736,
      "Ġ2022": 3737,
      "ĠYoun": 3738,
      "Ġregional": 3739,
      "Ġattem": 3740,
      "ificant": 3741,
      "Ġsoutheast": 3742,
      "NA": 3743,
      "kins": 3744,
      "Ġsat": 3745,
      "189": 3746,
      "Ġprovides": 3747,
      "ĠLegislative": 3748,
      "Ġcop": 3749,
      "reme": 3750,
      "cean": 3751,
      "ĠStat": 3752,
      "Ġcompris": 3753,
      "ella": 3754,
      "Ġboard": 3755,
      "Ġsolo": 3756,
      "oid": 3757,
      "wide": 3758,
      "Ġfed": 3759,
      "ĠTer": 3760,
      "ĠBBC": 3761,
      "iger": 3762,
      "Ġadj": 3763,
      "Ġinvest": 3764,
      "ĠAlberta": 3765,
      "Ġneighborhood": 3766,
      "Ã£": 3767,
      "ify": 3768,
      "aps": 3769,
      "Ġimm": 3770,
      "Ġrenamed": 3771,
      "Ġnortheast": 3772,
      "rich": 3773,
      "song": 3774,
      "ĠSand": 3775,
      "ĠLittle": 3776,
      "Ġclaim": 3777,
      "ja": 3778,
      "Ġwood": 3779,
      "ĠOpen": 3780,
      "Ġmedia": 3781,
      "Ġeven": 3782,
      "ĠGlas": 3783,
      "Ġculture": 3784,
      "FA": 3785,
      "ien": 3786,
      "Ġurban": 3787,
      "ications": 3788,
      "Ġpop": 3789,
      "ĠSol": 3790,
      "ĠAsh": 3791,
      "Ġdraft": 3792,
      "Ġless": 3793,
      "Ġnine": 3794,
      "ĠLuc": 3795,
      "Ġonce": 3796,
      "iant": 3797,
      "ĠUl": 3798,
      "Ġsequ": 3799,
      "Ġupon": 3800,
      "Ġfolk": 3801,
      "erem": 3802,
      "ĠSocial": 3803,
      "ĠRome": 3804,
      "ĠJac": 3805,
      "Ġrugby": 3806,
      "ĠArthur": 3807,
      "Ġsoftware": 3808,
      "har": 3809,
      "ĠAz": 3810,
      "ĠHor": 3811,
      "ĠOff": 3812,
      "Ġ1944": 3813,
      "Ġregard": 3814,
      "Ġ1939": 3815,
      "..": 3816,
      "self": 3817,
      "Ã¥": 3818,
      "Ġself": 3819,
      "Ġcaus": 3820,
      "Ġmiddle": 3821,
      "ĠFour": 3822,
      "Ġlaunched": 3823,
      "Ġinitially": 3824,
      "ĠBad": 3825,
      "ĠPerson": 3826,
      "ĠGal": 3827,
      "ĠWel": 3828,
      "Ġaircraft": 3829,
      "Ġkilomet": 3830,
      "ias": 3831,
      "Ġnomin": 3832,
      "iano": 3833,
      "Ġsignificant": 3834,
      "ophy": 3835,
      "Ġrespons": 3836,
      "ĠRog": 3837,
      "ĠGard": 3838,
      "ĠOk": 3839,
      "oper": 3840,
      "Ġexample": 3841,
      "Ġif": 3842,
      "Ġoffer": 3843,
      "Ġord": 3844,
      "ateur": 3845,
      "Ġtraining": 3846,
      "Ġwebsite": 3847,
      "stra": 3848,
      "Ġliving": 3849,
      "ĠStan": 3850,
      "Ġveh": 3851,
      "Ġleast": 3852,
      "Ġoverall": 3853,
      "Ġchanged": 3854,
      "ĠQueensland": 3855,
      "fect": 3856,
      "ĠCub": 3857,
      "peror": 3858,
      "anguage": 3859,
      "ĠEliz": 3860,
      "aign": 3861,
      "sen": 3862,
      "ero": 3863,
      "Ġfir": 3864,
      "ĠBet": 3865,
      "ĠWinn": 3866,
      "eme": 3867,
      "Ġofficially": 3868,
      "ĠQuebec": 3869,
      "ĠGlasgow": 3870,
      "ban": 3871,
      "ems": 3872,
      "Ġdepartment": 3873,
      "ographer": 3874,
      "use": 3875,
      "ĠStadium": 3876,
      "ĠToronto": 3877,
      "Ġstructure": 3878,
      "Ġsplit": 3879,
      "Ġannual": 3880,
      "Ġawarded": 3881,
      "mad": 3882,
      "ved": 3883,
      "urity": 3884,
      "ades": 3885,
      "Ġnar": 3886,
      "Ġitself": 3887,
      "Ġtransport": 3888,
      "Ġtake": 3889,
      "alt": 3890,
      "Ġnickn": 3891,
      "ĠVo": 3892,
      "encies": 3893,
      "Ġedition": 3894,
      "Ġnews": 3895,
      "Ġshows": 3896,
      "Ġer": 3897,
      "ĠâĢ": 3898,
      "Ġtakes": 3899,
      "ĠSo": 3900,
      "ĠLord": 3901,
      "Ġreport": 3902,
      "Ġrural": 3903,
      "obile": 3904,
      "Ġtowns": 3905,
      "Ġnearby": 3906,
      "Ġearned": 3907,
      "olis": 3908,
      "change": 3909,
      "ĠCommission": 3910,
      "'t": 3911,
      "ĠBost": 3912,
      "ĠDet": 3913,
      "ĠGar": 3914,
      "ĠStep": 3915,
      "Ã¡n": 3916,
      "ĠTelevision": 3917,
      "ĠSeries": 3918,
      "omes": 3919,
      "ĠDirect": 3920,
      "ĠWater": 3921,
      "aper": 3922,
      "ĠConserv": 3923,
      "ĠArea": 3924,
      "Ġche": 3925,
      "ros": 3926,
      "ume": 3927,
      "Ġvir": 3928,
      "abor": 3929,
      "Ġneighbour": 3930,
      "Ġperformance": 3931,
      "ione": 3932,
      "Ġfifth": 3933,
      "iga": 3934,
      "asty": 3935,
      "Ġcompan": 3936,
      "Ġelectric": 3937,
      "Ġrecording": 3938,
      "ĠBaron": 3939,
      "onym": 3940,
      "ĠUpper": 3941,
      "ĠCastle": 3942,
      "Ġsize": 3943,
      "Ġgood": 3944,
      "imb": 3945,
      "ĠOrder": 3946,
      "ĠProfessor": 3947,
      "idi": 3948,
      "ordin": 3949,
      "Ġexecutive": 3950,
      "ĠPremier": 3951,
      "Ġselected": 3952,
      "Ġwidely": 3953,
      "TA": 3954,
      "Äį": 3955,
      "Ġcal": 3956,
      "ĠBank": 3957,
      "ĠOffic": 3958,
      "ĠColor": 3959,
      "pecially": 3960,
      "iated": 3961,
      "omp": 3962,
      "ĠDisc": 3963,
      "Ġgovernor": 3964,
      "Ġstreet": 3965,
      "ĠChief": 3966,
      "Ġassociation": 3967,
      "Ġparks": 3968,
      "Ġprominent": 3969,
      "ĠMcC": 3970,
      "house": 3971,
      "Ġtreat": 3972,
      "ova": 3973,
      "ĠCentre": 3974,
      "Ġcommunities": 3975,
      "icy": 3976,
      "Ġpsych": 3977,
      "Ġaction": 3978,
      "ĠPhilipp": 3979,
      "ĠYoung": 3980,
      "adron": 3981,
      "ĠJan": 3982,
      "ĠKen": 3983,
      "Ġrights": 3984,
      "ĠAlf": 3985,
      "anga": 3986,
      "Ġ60": 3987,
      "ĠScience": 3988,
      "ĠCommittee": 3989,
      "Ġtrade": 3990,
      "ĠSerb": 3991,
      "Ġlicensed": 3992,
      "Ġterritory": 3993,
      "erb": 3994,
      "ares": 3995,
      "Ġwithout": 3996,
      "ĠAndrew": 3997,
      "ĠKentucky": 3998,
      "ato": 3999,
      "anda": 4000,
      "ighth": 4001,
      "ĠBritain": 4002,
      "Ġairport": 4003,
      "90": 4004,
      "Ġ$": 4005,
      "Ġathlet": 4006,
      "ĠVan": 4007,
      "ĠBerlin": 4008,
      "Ġpersonal": 4009,
      "Ġhosted": 4010,
      "ĠSweden": 4011,
      "uce": 4012,
      "Ġfund": 4013,
      "ĠSab": 4014,
      "ĠCy": 4015,
      "ips": 4016,
      "Ġchief": 4017,
      "Ġwriting": 4018,
      "gypt": 4019,
      "ĠDan": 4020,
      "ĠGall": 4021,
      "ĠGirl": 4022,
      "Ġcolon": 4023,
      "Ġelectoral": 4024,
      "ĠElizabeth": 4025,
      "val": 4026,
      "Ġmission": 4027,
      "ĠHon": 4028,
      "ĠRay": 4029,
      "ĠLad": 4030,
      "ider": 4031,
      "ĠConnect": 4032,
      "Ġterms": 4033,
      "bu": 4034,
      "mentary": 4035,
      "phal": 4036,
      "Ġtradition": 4037,
      "Ġlyric": 4038,
      "ĠBoston": 4039,
      "iest": 4040,
      "Ġpos": 4041,
      "lem": 4042,
      "ĠPo": 4043,
      "Ġwhom": 4044,
      "ĠAnton": 4045,
      "Ġclosed": 4046,
      "Ġattack": 4047,
      "ĠMountain": 4048,
      "Ġtypically": 4049,
      "rup": 4050,
      "ĠBon": 4051,
      "ĠFar": 4052,
      "Ġ1941": 4053,
      "Ġcourt": 4054,
      "ĠTop": 4055,
      "Ġmass": 4056,
      "ĠDown": 4057,
      "ĠGree": 4058,
      "Ġ2023": 4059,
      "ector": 4060,
      "Ġintended": 4061,
      "Ġski": 4062,
      "eded": 4063,
      "Ġcateg": 4064,
      "enna": 4065,
      "ĠCommon": 4066,
      "ĠMaryland": 4067,
      "ees": 4068,
      "hol": 4069,
      "Ġtest": 4070,
      "ora": 4071,
      "Ġsug": 4072,
      "ĠAut": 4073,
      "ĠStation": 4074,
      "apl": 4075,
      "ĠTeam": 4076,
      "ĠMuseum": 4077,
      "oir": 4078,
      "Ġinsp": 4079,
      "Ġanal": 4080,
      "ĠSund": 4081,
      "inger": 4082,
      "elt": 4083,
      "ĠEgypt": 4084,
      "ĠOut": 4085,
      "ĠCharl": 4086,
      "ouri": 4087,
      "ĠAnth": 4088,
      "CC": 4089,
      "Ġast": 4090,
      "ites": 4091,
      "rees": 4092,
      "Ġprob": 4093,
      "Ġvalley": 4094,
      "ĠFederation": 4095,
      "Ġacademic": 4096,
      "anks": 4097,
      "ĠEarth": 4098,
      "Ġlet": 4099,
      "ski": 4100,
      "Ġsource": 4101,
      "Ġreligious": 4102,
      "bit": 4103,
      "Ġide": 4104,
      "Ġsaid": 4105,
      "ĠEll": 4106,
      "Ġconcept": 4107,
      "Ġcommission": 4108,
      "insula": 4109,
      "Ġsecondary": 4110,
      "Ġfollows": 4111,
      "Ġ1928": 4112,
      "ĠTurkish": 4113,
      "Ġdoes": 4114,
      "ĠMexican": 4115,
      "sel": 4116,
      "Ġcase": 4117,
      "ĠBah": 4118,
      "ĠDani": 4119,
      "ĠNetwork": 4120,
      "ĠOtt": 4121,
      "Ġrat": 4122,
      "Ġlearn": 4123,
      "wer": 4124,
      "used": 4125,
      "owa": 4126,
      "phy": 4127,
      "ĠPrime": 4128,
      "Ġparticularly": 4129,
      "Ġconstructed": 4130,
      "ĠCross": 4131,
      "ĠMur": 4132,
      "Ġhot": 4133,
      "ulation": 4134,
      "iang": 4135,
      "acing": 4136,
      "Ġrap": 4137,
      "Ġsubs": 4138,
      "ĠAlbert": 4139,
      "Ġholds": 4140,
      "Ġtext": 4141,
      "urer": 4142,
      "ĠLo": 4143,
      "rang": 4144,
      "Ġbelow": 4145,
      "aught": 4146,
      "Ġstrong": 4147,
      "Ġespecially": 4148,
      "Ġalmost": 4149,
      "aches": 4150,
      "Ġviol": 4151,
      "illa": 4152,
      "Ġmajority": 4153,
      "ĠBillboard": 4154,
      "Ġdedicated": 4155,
      "Ġcell": 4156,
      "ĠBir": 4157,
      "ador": 4158,
      "osl": 4159,
      "Ġplan": 4160,
      "Ġplaced": 4161,
      "Ġstatus": 4162,
      "SA": 4163,
      "go": 4164,
      "icine": 4165,
      "ĠTime": 4166,
      "ĠTheatre": 4167,
      "Ġlog": 4168,
      "Ġfounding": 4169,
      "Ġrunning": 4170,
      "45": 4171,
      "Ġtheatre": 4172,
      "ĠPit": 4173,
      "Ġham": 4174,
      "Ġbecoming": 4175,
      "iscons": 4176,
      "ĠCape": 4177,
      "NFL": 4178,
      "SP": 4179,
      "ken": 4180,
      "Ãº": 4181,
      "Ġfind": 4182,
      "ĠTreat": 4183,
      "illy": 4184,
      "Ġdance": 4185,
      "ĠNFL": 4186,
      "Ġ1936": 4187,
      "Ġcapac": 4188,
      "Ġprogramming": 4189,
      "Ġcampus": 4190,
      "Ġindustrial": 4191,
      "isconsin": 4192,
      "tered": 4193,
      "Ġstars": 4194,
      "Ġ35": 4195,
      "Ġimp": 4196,
      "Ġrecords": 4197,
      "Ġhimself": 4198,
      "Ġcontinued": 4199,
      "Ġengineer": 4200,
      "Ġproducts": 4201,
      "iting": 4202,
      "Ġclubs": 4203,
      "Ġbeginning": 4204,
      "ĠMelbourne": 4205,
      "Ġcreat": 4206,
      "Ġlower": 4207,
      "ĠEp": 4208,
      "Ġsubject": 4209,
      "Ġrelation": 4210,
      "ĠBeach": 4211,
      "ĠCongress": 4212,
      "West": 4213,
      "onic": 4214,
      "Ġanti": 4215,
      "ilton": 4216,
      "ĠFM": 4217,
      "Ġvoice": 4218,
      "ift": 4219,
      "Ġapplic": 4220,
      "Ġprovide": 4221,
      "ĠRepresent": 4222,
      "ĠCountry": 4223,
      "Ġethnic": 4224,
      "Ġscholar": 4225,
      "iy": 4226,
      "ĠSom": 4227,
      "etic": 4228,
      "ĠJon": 4229,
      "osh": 4230,
      "range": 4231,
      "Ġnoted": 4232,
      "chen": 4233,
      "Ġelections": 4234,
      "stitut": 4235,
      "Ġlawyer": 4236,
      "enia": 4237,
      "Ġrad": 4238,
      "ĠAlbum": 4239,
      "ĠAbb": 4240,
      "Ġdistance": 4241,
      "ĠPrior": 4242,
      "ĠDuke": 4243,
      "Ġseparate": 4244,
      "Ġpen": 4245,
      "ĠFinn": 4246,
      "Ġchair": 4247,
      "Ã£o": 4248,
      "war": 4249,
      "Ġlost": 4250,
      "ĠFox": 4251,
      "Ġvon": 4252,
      "Ġtransfer": 4253,
      "Ġfinished": 4254,
      "comp": 4255,
      "Ġsimply": 4256,
      "Ġconstituency": 4257,
      "Ġminister": 4258,
      "Ġcouncil": 4259,
      "Ġdays": 4260,
      "uts": 4261,
      "Ġunivers": 4262,
      "ĠMedal": 4263,
      "35": 4264,
      "Ġfront": 4265,
      "ĠDanish": 4266,
      "Ġvillages": 4267,
      "ĠBoard": 4268,
      "Ġannounced": 4269,
      "ĠJean": 4270,
      "ĠJeff": 4271,
      "ean": 4272,
      "Ġfood": 4273,
      "ĠSat": 4274,
      "Ġhowever": 4275,
      "ĠArgentina": 4276,
      "mouth": 4277,
      "nam": 4278,
      "itors": 4279,
      "Ġdom": 4280,
      "ĠFer": 4281,
      "ĠWisconsin": 4282,
      "mann": 4283,
      "Ġoperating": 4284,
      "ĠOxford": 4285,
      "In": 4286,
      "car": 4287,
      "Ġmer": 4288,
      "ila": 4289,
      "oke": 4290,
      "oints": 4291,
      "Ġprovided": 4292,
      "ĠMalays": 4293,
      "ĠHills": 4294,
      "Ġprior": 4295,
      "ĠFounded": 4296,
      "eleb": 4297,
      "anth": 4298,
      "Ġsummer": 4299,
      "ĠTod": 4300,
      "ĠMuslim": 4301,
      "ĠRepubl": 4302,
      "ched": 4303,
      "tained": 4304,
      "real": 4305,
      "Ġbase": 4306,
      "ĠCard": 4307,
      "ĠLev": 4308,
      "ĠLower": 4309,
      "ĠWall": 4310,
      "ĠComics": 4311,
      "lowing": 4312,
      "restling": 4313,
      "Ġearlier": 4314,
      "inus": 4315,
      "ali": 4316,
      "ĠAh": 4317,
      "ĠBut": 4318,
      "ĠDak": 4319,
      "umber": 4320,
      "ĠInt": 4321,
      "Ġcomplete": 4322,
      "Ġ1937": 4323,
      "Ġfunction": 4324,
      "rief": 4325,
      "Ġindividual": 4326,
      "Ġtro": 4327,
      "isions": 4328,
      "ĠSpe": 4329,
      "olk": 4330,
      "Ġnuc": 4331,
      "ĠLike": 4332,
      "ĠGood": 4333,
      "ĠKansas": 4334,
      "ĠWilliams": 4335,
      "Ġchemical": 4336,
      "Ġmultiple": 4337,
      "rig": 4338,
      "Ġbig": 4339,
      "Ġnever": 4340,
      "ĠLight": 4341,
      "ĠUk": 4342,
      "Ġmedical": 4343,
      "Ġaccount": 4344,
      "75": 4345,
      "zy": 4346,
      "Ġtax": 4347,
      "inosaur": 4348,
      "ĠMax": 4349,
      "ĠBab": 4350,
      "irit": 4351,
      "Ġjazz": 4352,
      "Ġtravel": 4353,
      "Ġmatch": 4354,
      "ĠOrganization": 4355,
      "king": 4356,
      "ĠFC": 4357,
      "idents": 4358,
      "ima": 4359,
      "uten": 4360,
      "ĠChild": 4361,
      "Ġexcept": 4362,
      "Ġyouth": 4363,
      "ĠBefore": 4364,
      "ĠMissouri": 4365,
      "Ġbishop": 4366,
      "ĠBell": 4367,
      "oln": 4368,
      "ĠJones": 4369,
      "Ġtrain": 4370,
      "Ġbeliev": 4371,
      "Ġdiscovered": 4372,
      "ba": 4373,
      "uer": 4374,
      "Ġden": 4375,
      "ema": 4376,
      "essee": 4377,
      "Ġregular": 4378,
      "Ġenvironment": 4379,
      "Ġremains": 4380,
      "Ġdeterm": 4381,
      "Ġfurther": 4382,
      "ĠBishop": 4383,
      "ĠFamily": 4384,
      "Ġforces": 4385,
      "Ġgirl": 4386,
      "ĠUSA": 4387,
      "Ġpainter": 4388,
      "Ġracing": 4389,
      "ĠAriz": 4390,
      "ĠCas": 4391,
      "ĠNight": 4392,
      "Ġappearance": 4393,
      "Ġskater": 4394,
      "Ġtitles": 4395,
      "Ġprograms": 4396,
      "ĠBasketball": 4397,
      "ĠColorado": 4398,
      "don": 4399,
      "Ġpot": 4400,
      "Ġarts": 4401,
      "ĠJohann": 4402,
      "ĠResearch": 4403,
      "ĠJackson": 4404,
      "ladesh": 4405,
      "ĠTennessee": 4406,
      "ĠSil": 4407,
      "ĠTy": 4408,
      "acent": 4409,
      "Ġexpress": 4410,
      "ĠNews": 4411,
      "Ġagricult": 4412,
      "Ġlegal": 4413,
      "Ġbegins": 4414,
      "ĠKorean": 4415,
      "ĠHo": 4416,
      "ĠJes": 4417,
      "ĠJud": 4418,
      "Ġinteg": 4419,
      "ĠĠĠĠĠĠĠĠ": 4420,
      "ais": 4421,
      "more": 4422,
      "itage": 4423,
      "Ġpurch": 4424,
      "Ġmic": 4425,
      "Ġdens": 4426,
      "ĠDor": 4427,
      "imated": 4428,
      "Ġmedals": 4429,
      "ĠMedia": 4430,
      "Ġhistorian": 4431,
      "Ġaccording": 4432,
      "Ġgoal": 4433,
      "ĠBangladesh": 4434,
      "bell": 4435,
      "ĠBand": 4436,
      "ĠId": 4437,
      "Ġcontemporary": 4438,
      "ĠSchools": 4439,
      "Ġlarger": 4440,
      "Ġ1929": 4441,
      "ĠDevelop": 4442,
      "Ġlimited": 4443,
      "38": 4444,
      "een": 4445,
      "je": 4446,
      "ji": 4447,
      "icut": 4448,
      "Ġheavy": 4449,
      "Ġhealth": 4450,
      "ĠJohnson": 4451,
      "Ġbusinessman": 4452,
      "ymn": 4453,
      "ĠEntertain": 4454,
      "ĠTokyo": 4455,
      "mir": 4456,
      "Ġaver": 4457,
      "ĠAff": 4458,
      "ĠLes": 4459,
      "Ġforce": 4460,
      "ĠEP": 4461,
      "aven": 4462,
      "ennis": 4463,
      "ĠPolit": 4464,
      "ĠRhine": 4465,
      "Ġnewspapers": 4466,
      "Ġconsisting": 4467,
      "Ġpractice": 4468,
      "Ġcapacity": 4469,
      "hold": 4470,
      "Ġtree": 4471,
      "Ġcand": 4472,
      "ĠMun": 4473,
      "str": 4474,
      "usion": 4475,
      "uty": 4476,
      "ability": 4477,
      "Ġopening": 4478,
      "comm": 4479,
      "Ġliterature": 4480,
      "ĠArizona": 4481,
      "Ġ),": 4482,
      "Ġcertain": 4483,
      "amin": 4484,
      "Ġhol": 4485,
      "ĠDar": 4486,
      "iance": 4487,
      "Ġplants": 4488,
      "ension": 4489,
      "Ġcoordin": 4490,
      "ĠIndepend": 4491,
      "incorporated": 4492,
      "ĠClark": 4493,
      "Ġspecific": 4494,
      "ĠManchester": 4495,
      "ĠCre": 4496,
      "ĠNations": 4497,
      "ecess": 4498,
      "Ġacting": 4499,
      "188": 4500,
      "Ġopera": 4501,
      "Ġportion": 4502,
      "ĠOverview": 4503,
      "songwriter": 4504,
      "95": 4505,
      "ven": 4506,
      "arter": 4507,
      "ĠMike": 4508,
      "Ġtoday": 4509,
      "ols": 4510,
      "ĠField": 4511,
      "ĠEnd": 4512,
      "Ġmetres": 4513,
      "ĠNotable": 4514,
      "ĠFrederick": 4515,
      "achelor": 4516,
      "Ġaway": 4517,
      "ĠMany": 4518,
      "ĠLat": 4519,
      "Ġec": 4520,
      "Ġcomes": 4521,
      "Ġadop": 4522,
      "Ġresident": 4523,
      "Ġ1932": 4524,
      "ĠPopulated": 4525,
      "ĠGoiÃ¡s": 4526,
      "ication": 4527,
      "Ġball": 4528,
      "ĠBos": 4529,
      "ĠPers": 4530,
      "ĠLew": 4531,
      "ĠEle": 4532,
      "Ġtele": 4533,
      "cles": 4534,
      "ĠThree": 4535,
      "incoln": 4536,
      "anced": 4537,
      "Ġmeet": 4538,
      "Ġeconomic": 4539,
      "ĠSteve": 4540,
      "36": 4541,
      "nel": 4542,
      "yan": 4543,
      "Ġtheor": 4544,
      "ishes": 4545,
      "ĠHy": 4546,
      "ĠLind": 4547,
      "ĠGram": 4548,
      "ĠFI": 4549,
      "eman": 4550,
      "ego": 4551,
      "Ġoccur": 4552,
      "Ġjournal": 4553,
      "ef": 4554,
      "han": 4555,
      "ĠBrad": 4556,
      "anning": 4557,
      "Ġ1933": 4558,
      "ption": 4559,
      "ĠAtlantic": 4560,
      "Ġreturned": 4561,
      "bs": 4562,
      "ĠNeb": 4563,
      "ĠStock": 4564,
      "ĠColl": 4565,
      "Ġresults": 4566,
      "ĠShow": 4567,
      "ailed": 4568,
      "Ġwinner": 4569,
      "rast": 4570,
      "inth": 4571,
      "ĠSel": 4572,
      "ĠTw": 4573,
      "Ġdipl": 4574,
      "stone": 4575,
      "Ġnob": 4576,
      "lying": 4577,
      "Ġgraph": 4578,
      "Ġmechan": 4579,
      "ĠConnecticut": 4580,
      "boy": 4581,
      "Ġfish": 4582,
      "ĠSus": 4583,
      "ĠEver": 4584,
      "ĠForest": 4585,
      "Ġeventually": 4586,
      "ĠCommunity": 4587,
      "ĠTa": 4588,
      "ĠKal": 4589,
      "Ġarm": 4590,
      "Ġacid": 4591,
      "Ġoperations": 4592,
      "Ġ1923": 4593,
      "Ġlines": 4594,
      "ĠHarv": 4595,
      "Ġsubsequently": 4596,
      "Ġattempt": 4597,
      "ĠGreece": 4598,
      "geme": 4599,
      "uous": 4600,
      "het": 4601,
      "ĠCop": 4602,
      "ĠCirc": 4603,
      "Ġstories": 4604,
      "oba": 4605,
      "Ġoutside": 4606,
      "Ġfeaturing": 4607,
      "itation": 4608,
      "ĠHart": 4609,
      "ĠFair": 4610,
      "Ġbetter": 4611,
      "ĠYorkshire": 4612,
      "ĠMinistry": 4613,
      "ĠFollowing": 4614,
      "ĠVienna": 4615,
      "lÄ±": 4616,
      "Äĩ": 4617,
      "atch": 4618,
      "Ġmach": 4619,
      "Ġdate": 4620,
      "Ġnation": 4621,
      "ĠLive": 4622,
      "ĠOcean": 4623,
      "ĠKenn": 4624,
      "Ġconvention": 4625,
      "ĠBrother": 4626,
      "Ġbuildings": 4627,
      "ieval": 4628,
      "Ġissues": 4629,
      "Ġmixed": 4630,
      "ĠDaniel": 4631,
      "39": 4632,
      "rim": 4633,
      "worth": 4634,
      "ieuten": 4635,
      "ways": 4636,
      "Ġolder": 4637,
      "itzerland": 4638,
      "Ġtechnology": 4639,
      "47": 4640,
      "ĠRaj": 4641,
      "igen": 4642,
      "ĠOf": 4643,
      "ĠOak": 4644,
      "186": 4645,
      "Ġimpro": 4646,
      "Ġproperty": 4647,
      "ĠTransport": 4648,
      "Ġkingdom": 4649,
      "Ġmonths": 4650,
      "Ġdouble": 4651,
      "ĠEntertainment": 4652,
      ",\"": 4653,
      "55": 4654,
      "Ar": 4655,
      "HL": 4656,
      "pite": 4657,
      "alo": 4658,
      "omm": 4659,
      "ĠFestival": 4660,
      "Ġ1931": 4661,
      "Ġclassical": 4662,
      "Ġsixth": 4663,
      "Ġcompilation": 4664,
      "Ġtribut": 4665,
      "onom": 4666,
      "Ġparliament": 4667,
      "Ġentertain": 4668,
      "Ġsurface": 4669,
      "Ġcampaign": 4670,
      "Ġfriend": 4671,
      "Ġcollabor": 4672,
      "ĠDakota": 4673,
      "dam": 4674,
      "Ġcerem": 4675,
      "Ġpoints": 4676,
      "Ġmaster": 4677,
      "ĠMember": 4678,
      "Ġlives": 4679,
      "ĠRod": 4680,
      "lyn": 4681,
      "ĠNord": 4682,
      "aged": 4683,
      "uture": 4684,
      "ĠChap": 4685,
      "astic": 4686,
      "ibrary": 4687,
      "ĠRepublican": 4688,
      "bra": 4689,
      "ek": 4690,
      "aria": 4691,
      "alle": 4692,
      "Ġceleb": 4693,
      "ĠTal": 4694,
      "ĠMir": 4695,
      "ĠPoint": 4696,
      "istry": 4697,
      "Ġgovern": 4698,
      "Ġproble": 4699,
      "Ġsex": 4700,
      "Ġmuseum": 4701,
      "Ġsymb": 4702,
      "enger": 4703,
      "track": 4704,
      "Ġillust": 4705,
      "Ġadjacent": 4706,
      "44": 4707,
      "Ġcourse": 4708,
      "amm": 4709,
      "ĠRen": 4710,
      "ancer": 4711,
      "Ġ1927": 4712,
      "Ġinterest": 4713,
      "Ġadded": 4714,
      "Ġreview": 4715,
      "formerly": 4716,
      "Ġfederal": 4717,
      "Ġoil": 4718,
      "Ġbrief": 4719,
      "leased": 4720,
      "izing": 4721,
      "uan": 4722,
      "ĠHamp": 4723,
      "ĠPass": 4724,
      "Ġnight": 4725,
      "ĠDall": 4726,
      "ĠChannel": 4727,
      "ĠHamilton": 4728,
      "ĠFederal": 4729,
      "ĠStephen": 4730,
      "Ġbird": 4731,
      "ĠTay": 4732,
      "ĠHind": 4733,
      "ayer": 4734,
      "anton": 4735,
      "ifications": 4736,
      "Ġcapt": 4737,
      "ĠFrancis": 4738,
      "Ġflows": 4739,
      "Ġet": 4740,
      "orf": 4741,
      "oring": 4742,
      "orph": 4743,
      "Ġcard": 4744,
      "ĠSher": 4745,
      "Ġ1918": 4746,
      "Ġconver": 4747,
      "ĠAlab": 4748,
      "raska": 4749,
      "Ġcompanies": 4750,
      "Al": 4751,
      "Ġeld": 4752,
      "Ġwoman": 4753,
      "Ġfoot": 4754,
      "ĠMr": 4755,
      "ĠBeng": 4756,
      "uries": 4757,
      "ĠLincoln": 4758,
      "ĠWild": 4759,
      "ogy": 4760,
      "hedron": 4761,
      "ĠMarc": 4762,
      "action": 4763,
      "ĠEngine": 4764,
      "ĠWars": 4765,
      "ĠSwitzerland": 4766,
      "Ġdistinct": 4767,
      "sky": 4768,
      "Ġengineering": 4769,
      "CAA": 4770,
      "Ġelevation": 4771,
      "Ġmathematics": 4772,
      "Ġprincipal": 4773,
      "emorial": 4774,
      "ĠCambridge": 4775,
      "Ġfire": 4776,
      "roy": 4777,
      "enty": 4778,
      "uther": 4779,
      "ĠVen": 4780,
      "Ġarmy": 4781,
      "Ġcontract": 4782,
      "Ġpress": 4783,
      "Ġ1922": 4784,
      "ĠSwiss": 4785,
      "Ġmanagement": 4786,
      "Ġparticipated": 4787,
      "Ġsurrounding": 4788,
      "CD": 4789,
      "ih": 4790,
      "iot": 4791,
      "Ġess": 4792,
      "ĠClev": 4793,
      "ĠRat": 4794,
      "ĠDiv": 4795,
      "Ġfort": 4796,
      "ĠInn": 4797,
      "Ġrather": 4798,
      "akh": 4799,
      "Ġregions": 4800,
      "ĠBrian": 4801,
      "Ġremained": 4802,
      "Ġrepresenting": 4803,
      "ĠRevolution": 4804,
      "Ġresponsible": 4805,
      "ĠPitts": 4806,
      "Ġended": 4807,
      "ĠMaster": 4808,
      "ĠBall": 4809,
      "perial": 4810,
      "chestra": 4811,
      "Ġconcern": 4812,
      "ĠAnthony": 4813,
      "31": 4814,
      "cul": 4815,
      "Ġera": 4816,
      "asion": 4817,
      "Ġislands": 4818,
      "Ġdinosaur": 4819,
      "ĠMaria": 4820,
      "inde": 4821,
      "rought": 4822,
      "ĠJustice": 4823,
      "Ġemb": 4824,
      "ĠSax": 4825,
      "ĠBor": 4826,
      "ĠBru": 4827,
      "Ġdiss": 4828,
      "ires": 4829,
      "ĠOt": 4830,
      "aki": 4831,
      "ĠChart": 4832,
      "ĠMicro": 4833,
      "Ġacquired": 4834,
      "ieutenant": 4835,
      "Ġpione": 4836,
      "ĠSu": 4837,
      "agon": 4838,
      "antasy": 4839,
      "Ġprison": 4840,
      "ĠConf": 4841,
      "Ġ1924": 4842,
      "Ġdefined": 4843,
      "Ġcovered": 4844,
      "Ġcricketer": 4845,
      "Ġfunct": 4846,
      "Ġkilled": 4847,
      "Ġastron": 4848,
      "FM": 4849,
      "bridge": 4850,
      "jord": 4851,
      "uese": 4852,
      "ĠTem": 4853,
      "ĠRel": 4854,
      "add": 4855,
      "rik": 4856,
      "Ġcompound": 4857,
      "ancial": 4858,
      "Ġinters": 4859,
      "Ġversions": 4860,
      "Ġrecognized": 4861,
      "ĠAlabama": 4862,
      "language": 4863,
      "state": 4864,
      "ulpt": 4865,
      "ĠKel": 4866,
      "Ġvict": 4867,
      "ĠAustrian": 4868,
      "Ġpoly": 4869,
      "Ġ1921": 4870,
      "Ġcreate": 4871,
      "ĠMiller": 4872,
      "SC": 4873,
      "Ġcit": 4874,
      "omot": 4875,
      "ĠGro": 4876,
      "ighter": 4877,
      "Ġmovie": 4878,
      "Ġqual": 4879,
      "Ġparticular": 4880,
      "Ġassistant": 4881,
      "Ġdynasty": 4882,
      "ĠâĢľ": 4883,
      "42": 4884,
      "99": 4885,
      "aug": 4886,
      "Ġawards": 4887,
      "Ġinvent": 4888,
      "Ġpair": 4889,
      "ĠPress": 4890,
      "ĠRang": 4891,
      "ĠJoe": 4892,
      "Ġlocations": 4893,
      "Ġ1935": 4894,
      "ĠNova": 4895,
      "Ġoperation": 4896,
      "brev": 4897,
      "Ġalternative": 4898,
      "rass": 4899,
      "Ġhill": 4900,
      "Ġdescription": 4901,
      "Ġpoetry": 4902,
      "Ġelements": 4903,
      "water": 4904,
      "Ġfall": 4905,
      "ĠTony": 4906,
      "Ġmy": 4907,
      "Ġdigital": 4908,
      "ĠIv": 4909,
      "ĠIowa": 4910,
      "unct": 4911,
      "Ġarr": 4912,
      "ĠBoth": 4913,
      "ML": 4914,
      "Ġter": 4915,
      "standing": 4916,
      "Ġappl": 4917,
      "187": 4918,
      "Ġ1934": 4919,
      "Ġupper": 4920,
      "Ġphysical": 4921,
      "Ġmotor": 4922,
      "Ġhelp": 4923,
      "ĠBelgium": 4924,
      "Ġjunior": 4925,
      "ĠCleveland": 4926,
      "lu": 4927,
      "vels": 4928,
      "ened": 4929,
      "Ġsaw": 4930,
      "Ġpal": 4931,
      "ĠTimes": 4932,
      "ĠPower": 4933,
      "âĢĿ": 4934,
      "ultan": 4935,
      "obal": 4936,
      "Ġdefeat": 4937,
      "ĠLocation": 4938,
      "48": 4939,
      "Ġtaught": 4940,
      "unch": 4941,
      "ĠDam": 4942,
      "ĠHealth": 4943,
      "ĠMarine": 4944,
      "Ġblock": 4945,
      "Ġhouses": 4946,
      "Ġmerged": 4947,
      "Ġlyrics": 4948,
      "ĠDevelopment": 4949,
      "elect": 4950,
      "ĠSet": 4951,
      "ĠMas": 4952,
      "ĠDer": 4953,
      "ĠLy": 4954,
      "ĠChile": 4955,
      "Ġoffers": 4956,
      "ĠBarb": 4957,
      "Ġdeaths": 4958,
      "ĠDenmark": 4959,
      "ĠHuman": 4960,
      "eep": 4961,
      "jan": 4962,
      "ĠSav": 4963,
      "ĠCra": 4964,
      "ĠBerg": 4965,
      "Ġdial": 4966,
      "oto": 4967,
      "Ġvert": 4968,
      "Ġrecent": 4969,
      "Ġsongwriter": 4970,
      "ĠForces": 4971,
      "ĠHolland": 4972,
      "rolled": 4973,
      "Ġsources": 4974,
      "Ġdiplom": 4975,
      "ĠDallas": 4976,
      ".)": 4977,
      "bi": 4978,
      "Ġsaf": 4979,
      "Ġcou": 4980,
      "ĠCE": 4981,
      "ĠPost": 4982,
      "ĠDun": 4983,
      "Ġ1926": 4984,
      "Ġappearances": 4985,
      "ĠLabor": 4986,
      "Ġepisodes": 4987,
      "profit": 4988,
      "ydro": 4989,
      "alymp": 4990,
      "86": 4991,
      "ifically": 4992,
      "Ġkn": 4993,
      "Ġchange": 4994,
      "weight": 4995,
      "Ġabs": 4996,
      "ographic": 4997,
      "Ġowner": 4998,
      "ĠParalymp": 4999,
      "ĠHarris": 5000,
      "ĠAbd": 5001,
      "bass": 5002,
      "Î±": 5003,
      "edd": 5004,
      "Ġcart": 5005,
      "rem": 5006,
      "Ġmyth": 5007,
      "ĠPres": 5008,
      "stad": 5009,
      "ĠLar": 5010,
      "Ġgained": 5011,
      "ighting": 5012,
      "2005": 5013,
      "Ġobserv": 5014,
      "Ġpresented": 5015,
      "Ġactivities": 5016,
      "oa": 5017,
      "Ġcust": 5018,
      "ĠAM": 5019,
      "ĠBudd": 5020,
      "usp": 5021,
      "Ġthought": 5022,
      "Ġreserv": 5023,
      "anned": 5024,
      "Ġassembly": 5025,
      "Ġdesignated": 5026,
      "Ġdistingu": 5027,
      "ĠMontreal": 5028,
      "Ġheadquarters": 5029,
      "ĠSpecial": 5030,
      "ĠWelsh": 5031,
      "37": 5032,
      "ga": 5033,
      "arp": 5034,
      "asing": 5035,
      "ĠSound": 5036,
      "ĠBh": 5037,
      "ĠHu": 5038,
      "rance": 5039,
      "Ġhighly": 5040,
      "Ġsucce": 5041,
      "Ã±": 5042,
      "Ġopt": 5043,
      "ĠNic": 5044,
      "tery": 5045,
      "ands": 5046,
      "ager": 5047,
      "Ġ80": 5048,
      "Ġcounties": 5049,
      "Ġworldwide": 5050,
      "97": 5051,
      "iÃ³n": 5052,
      "atively": 5053,
      "ĠSum": 5054,
      "ouver": 5055,
      "Ġgra": 5056,
      "ĠVanc": 5057,
      "undred": 5058,
      "Ġserve": 5059,
      "Ġalongside": 5060,
      "Ġnovels": 5061,
      "ĠPortuguese": 5062,
      "ĠTechnology": 5063,
      "Ġhamlet": 5064,
      "with": 5065,
      "ĠÐ": 5066,
      "inals": 5067,
      "ĠDist": 5068,
      "ĠGreg": 5069,
      "Ġhere": 5070,
      "iece": 5071,
      "Ġseats": 5072,
      "Ġbreak": 5073,
      "Ġdensity": 5074,
      "46": 5075,
      "AF": 5076,
      "kin": 5077,
      "pool": 5078,
      "ĠAst": 5079,
      "ĠBat": 5080,
      "ĠDomin": 5081,
      "ĠLang": 5082,
      "ĠNCAA": 5083,
      "Ä±n": 5084,
      "ĠCorps": 5085,
      "ĠLiberal": 5086,
      "ĠDirector": 5087,
      "33": 5088,
      "eated": 5089,
      "Ġpers": 5090,
      "ĠHun": 5091,
      "ĠRam": 5092,
      "istol": 5093,
      "oses": 5094,
      "apore": 5095,
      "Ġsculpt": 5096,
      "Ġsettled": 5097,
      "ez": 5098,
      "ni": 5099,
      "ĠAle": 5100,
      "ĠCurrent": 5101,
      "ĠMov": 5102,
      "ablished": 5103,
      "oken": 5104,
      "ublin": 5105,
      "Ġtransmit": 5106,
      "Ġstarting": 5107,
      "ĠWindows": 5108,
      "Ġaverage": 5109,
      "SR": 5110,
      "bach": 5111,
      "pson": 5112,
      "Ġcorn": 5113,
      "Ġbattle": 5114,
      "ĠSant": 5115,
      "oted": 5116,
      "ĠKo": 5117,
      "owned": 5118,
      "ega": 5119,
      "olved": 5120,
      "ĠSupreme": 5121,
      "Ġelectronic": 5122,
      "ĠVancouver": 5123,
      "100": 5124,
      "ĠSyn": 5125,
      "Ġmem": 5126,
      "ĠHay": 5127,
      "ĠDur": 5128,
      "ĠLater": 5129,
      "Ġforest": 5130,
      "ĠAnderson": 5131,
      "Ġdiff": 5132,
      "ĠSecretary": 5133,
      "Ġhigher": 5134,
      "Ġneighbourhood": 5135,
      "rence": 5136,
      "tim": 5137,
      "Ġ[": 5138,
      "Ġsociety": 5139,
      "Ġcab": 5140,
      "Ġnorm": 5141,
      "imum": 5142,
      "Ġthus": 5143,
      "alled": 5144,
      "Ġunincorporated": 5145,
      "ĠLeon": 5146,
      "Ġoperates": 5147,
      "Ġdesigner": 5148,
      "Ġdisp": 5149,
      "Ġarchitecture": 5150,
      "\"),": 5151,
      "Dec": 5152,
      "died": 5153,
      "gu": 5154,
      "roit": 5155,
      "ĠMembers": 5156,
      "ĠPier": 5157,
      "Ġlatter": 5158,
      "cht": 5159,
      "ternet": 5160,
      "ĠMarsh": 5161,
      "azi": 5162,
      "Ġappears": 5163,
      "Ġappearing": 5164,
      "Ġ1908": 5165,
      "Ġdecided": 5166,
      "ĠBuild": 5167,
      "Ġeffect": 5168,
      "Ġconsisted": 5169,
      "Ġtribe": 5170,
      "ĠÄ°": 5171,
      "ĠNebraska": 5172,
      "gemeinde": 5173,
      "500": 5174,
      "iat": 5175,
      "Ġstaff": 5176,
      "imal": 5177,
      "ĠOb": 5178,
      "avia": 5179,
      "ĠChris": 5180,
      "erald": 5181,
      "Ġcontribut": 5182,
      "ĠAdam": 5183,
      "Ġ1917": 5184,
      "Ġbrothers": 5185,
      "ĠPortugal": 5186,
      "ĠOffice": 5187,
      "ĠVoiv": 5188,
      "Ġentertainment": 5189,
      "Ġaim": 5190,
      "Ġtall": 5191,
      "Ġsn": 5192,
      "Ġbrought": 5193,
      "Ġpaper": 5194,
      "ĠStand": 5195,
      "ĠStra": 5196,
      "ugg": 5197,
      "ĠAdv": 5198,
      "Ġcultural": 5199,
      "Ġcombined": 5200,
      "ĠDiego": 5201,
      "ĠSingapore": 5202,
      "ĠGolden": 5203,
      "Ġcritic": 5204,
      "Ġimmig": 5205,
      "56": 5206,
      "ĠTerrit": 5207,
      "ĠMore": 5208,
      "ĠBurn": 5209,
      "Ġtowards": 5210,
      "Ġfore": 5211,
      "ĠKam": 5212,
      "Ġexhib": 5213,
      "Ġrough": 5214,
      "ysis": 5215,
      "Ġconnected": 5216,
      "Ġdaily": 5217,
      "aplog": 5218,
      "cow": 5219,
      "isk": 5220,
      "ĠRon": 5221,
      "ĠRad": 5222,
      "Ġven": 5223,
      "ĠAthens": 5224,
      "ĠHoly": 5225,
      "Ġfirm": 5226,
      "ĠMalaysia": 5227,
      "aplogroup": 5228,
      "iÄĩ": 5229,
      "Ġcost": 5230,
      "Ġ1919": 5231,
      "Ġskating": 5232,
      "Ġextended": 5233,
      "ĠBuff": 5234,
      "Ġrespect": 5235,
      "Ġliterary": 5236,
      "ĠAtlanta": 5237,
      "Ġearliest": 5238,
      "ĠHospital": 5239,
      "elle": 5240,
      "ĠLt": 5241,
      "order": 5242,
      "ellig": 5243,
      "Ġspeak": 5244,
      "Ġ500": 5245,
      "Ġemerg": 5246,
      "ĠAffairs": 5247,
      "uge": 5248,
      "ĠSilver": 5249,
      "una": 5250,
      "ĠJam": 5251,
      "level": 5252,
      "ĠConference": 5253,
      "ĠHoward": 5254,
      "ĠDetroit": 5255,
      "Ġrelationship": 5256,
      "Gen": 5257,
      "life": 5258,
      "Ġens": 5259,
      "Ġtable": 5260,
      "Ġfe": 5261,
      "ilies": 5262,
      "ĠBou": 5263,
      "ĠRoss": 5264,
      "ĠWrit": 5265,
      "agh": 5266,
      "ĠKim": 5267,
      "antine": 5268,
      "Ġkind": 5269,
      "hedral": 5270,
      "Ġunits": 5271,
      "Ġboy": 5272,
      "inson": 5273,
      "ĠEdin": 5274,
      "Ġremaining": 5275,
      "ropical": 5276,
      "ÃŃa": 5277,
      "Ġtwice": 5278,
      "ĠPopulation": 5279,
      "96": 5280,
      "mph": 5281,
      "Ġtaking": 5282,
      "ĠABC": 5283,
      "ĠHan": 5284,
      "istical": 5285,
      "ĠNev": 5286,
      "Ġexc": 5287,
      "oking": 5288,
      "acter": 5289,
      "aceae": 5290,
      "ographical": 5291,
      "venture": 5292,
      "Ġpolitics": 5293,
      "Ġseventh": 5294,
      "atinate": 5295,
      "Ġestablishments": 5296,
      "phalia": 5297,
      "bers": 5298,
      "vin": 5299,
      "wall": 5300,
      "isa": 5301,
      "Ġpick": 5302,
      "ĠCur": 5303,
      "Ġdam": 5304,
      "ĠHou": 5305,
      "Ġhop": 5306,
      "Ġ1900": 5307,
      "ĠEss": 5308,
      "Ġ1925": 5309,
      "ĠÃī": 5310,
      "Ġ1910": 5311,
      "ĠSpring": 5312,
      "Ð°": 5313,
      "Ġcare": 5314,
      "ĠHell": 5315,
      "ĠHans": 5316,
      "ĠRa": 5317,
      "orney": 5318,
      "ĠIndust": 5319,
      "Ġmedieval": 5320,
      "odeship": 5321,
      "Ġvocalist": 5322,
      "Ġanimated": 5323,
      "ĠVoivodeship": 5324,
      "85": 5325,
      "enh": 5326,
      "Ġsand": 5327,
      "olia": 5328,
      "ĠEconom": 5329,
      "ources": 5330,
      "Ġlists": 5331,
      "Ġmoving": 5332,
      "ĠSenate": 5333,
      "Ġinstrument": 5334,
      "Ġjudge": 5335,
      "Ġsuggest": 5336,
      "dale": 5337,
      "gor": 5338,
      "pine": 5339,
      "aska": 5340,
      "rown": 5341,
      "Ġnature": 5342,
      "ĠDublin": 5343,
      "ĠEric": 5344,
      "agan": 5345,
      "ĠViet": 5346,
      "Ġlarg": 5347,
      "Ġships": 5348,
      "ĠFoundation": 5349,
      "Ġphilosophy": 5350,
      "ĠTaylor": 5351,
      "32": 5352,
      "ked": 5353,
      "mas": 5354,
      "Ġpit": 5355,
      "Ġdise": 5356,
      "ctic": 5357,
      "ĠNi": 5358,
      "usband": 5359,
      "Ġprote": 5360,
      "resp": 5361,
      "ĠPlan": 5362,
      "Ġ1912": 5363,
      "ĠDesign": 5364,
      "ĠEvents": 5365,
      "ĠPrize": 5366,
      "opping": 5367,
      "AM": 5368,
      "Ġput": 5369,
      "Ġdark": 5370,
      "ĠKarl": 5371,
      "orts": 5372,
      "ĠChad": 5373,
      "Ġserial": 5374,
      "Ġdeep": 5375,
      "Ġedge": 5376,
      "Ġenergy": 5377,
      "Ġpremier": 5378,
      "Ġbasis": 5379,
      "Ġjoint": 5380,
      "Ġfacility": 5381,
      "Ġdrummer": 5382,
      "AC": 5383,
      "SO": 5384,
      "mission": 5385,
      "ĠMemorial": 5386,
      "ĠDal": 5387,
      "ĠKild": 5388,
      "Ġbands": 5389,
      "Ġsmaller": 5390,
      "ĠMetropolitan": 5391,
      "Ġtypes": 5392,
      "Ġhonor": 5393,
      "ĠErn": 5394,
      "Ġtributary": 5395,
      "07": 5396,
      "98": 5397,
      "spe": 5398,
      "ĠAD": 5399,
      "ĠMand": 5400,
      "icted": 5401,
      "Ġattract": 5402,
      "ĠChristopher": 5403,
      "ĠHarry": 5404,
      "Ġcandid": 5405,
      "Ġtal": 5406,
      "ĠAud": 5407,
      "ĠHome": 5408,
      "ĠWat": 5409,
      "Ġstore": 5410,
      "agen": 5411,
      "Ġrang": 5412,
      "Ġstudios": 5413,
      "ippi": 5414,
      "ĠLawrence": 5415,
      "ĠBrazilian": 5416,
      "ĠSimon": 5417,
      "Ġaffiliated": 5418,
      "Ġcredited": 5419,
      "Ġprobably": 5420,
      "ĠEdinburgh": 5421,
      "2000": 5422,
      "34": 5423,
      "mary": 5424,
      "wing": 5425,
      "Ġanth": 5426,
      "Ġcoun": 5427,
      "ĠSi": 5428,
      "ĠAber": 5429,
      "ingham": 5430,
      "Ġmill": 5431,
      "Ġmust": 5432,
      "ĠFord": 5433,
      "ĠAnc": 5434,
      "Ġcolor": 5435,
      "Ġdefensive": 5436,
      "Ġ1914": 5437,
      "ĠLocated": 5438,
      "ĠWilson": 5439,
      "ĠLewis": 5440,
      "Ġnoble": 5441,
      "from": 5442,
      "icult": 5443,
      "ĠTs": 5444,
      "ĠGÃ¶": 5445,
      "Ġonline": 5446,
      "ĠArk": 5447,
      "izes": 5448,
      "ika": 5449,
      "Ġamateur": 5450,
      "ĠEmperor": 5451,
      "Ġyounger": 5452,
      "Ġactivist": 5453,
      "Ġscientific": 5454,
      "Ġbehind": 5455,
      "ĠJacob": 5456,
      "fecture": 5457,
      "ĠOfficial": 5458,
      "iast": 5459,
      "mology": 5460,
      "yal": 5461,
      "Ġwind": 5462,
      "Ġfranch": 5463,
      "ĠTest": 5464,
      "ĠCel": 5465,
      "ĠDrag": 5466,
      "rac": 5467,
      "ĠHeb": 5468,
      "ĠHeart": 5469,
      "Ġspons": 5470,
      "ĠAsian": 5471,
      "Ġsubsidi": 5472,
      "Ġbelieved": 5473,
      "aring": 5474,
      "Ġfestival": 5475,
      "Ġfrog": 5476,
      "ĠFire": 5477,
      "ĠWeb": 5478,
      "Ġvan": 5479,
      "ube": 5480,
      "rone": 5481,
      "Ġspecifically": 5482,
      "ĠMoscow": 5483,
      "Ġregarded": 5484,
      "ois": 5485,
      "ĠSeat": 5486,
      "ĠIV": 5487,
      "elve": 5488,
      "ĠRugby": 5489,
      "ĠDraft": 5490,
      "ĠGib": 5491,
      "ĠFinal": 5492,
      "ĠJourn": 5493,
      "aga": 5494,
      "ĠInst": 5495,
      "irection": 5496,
      "cluding": 5497,
      "eeks": 5498,
      "Ġcompetitions": 5499,
      "2006": 5500,
      "ĠMilitary": 5501,
      "Ġsuburbs": 5502,
      "ĠSingles": 5503,
      "Ġrestaur": 5504,
      "ĠFormation": 5505,
      "Ġforeign": 5506,
      "66": 5507,
      "Un": 5508,
      "uals": 5509,
      "enburg": 5510,
      "ĠSem": 5511,
      "ĠAnat": 5512,
      "Ġshore": 5513,
      "Ġjur": 5514,
      "Ġcenturies": 5515,
      "ĠIndones": 5516,
      "Ġpolice": 5517,
      "anna": 5518,
      "Ġprem": 5519,
      "Ä±k": 5520,
      "ĠMississ": 5521,
      "Ġsquare": 5522,
      "ĠPeninsula": 5523,
      "Ġcitiz": 5524,
      "December": 5525,
      "Ġlargely": 5526,
      "can": 5527,
      "Ġ:": 5528,
      "Ġfuture": 5529,
      "leton": 5530,
      "ĠMP": 5531,
      "agu": 5532,
      "ĠProgram": 5533,
      "Ġabbrev": 5534,
      "athan": 5535,
      "ĠProfessional": 5536,
      "aud": 5537,
      "net": 5538,
      "orp": 5539,
      "ĠCricket": 5540,
      "ĠBav": 5541,
      "ĠBry": 5542,
      "ĠIra": 5543,
      "ader": 5544,
      "ĠDark": 5545,
      "ĠLyn": 5546,
      "aped": 5547,
      "Ġarena": 5548,
      "Ġnearly": 5549,
      "Ġincorporated": 5550,
      "ĠModern": 5551,
      "Ġgraduate": 5552,
      "ĠDisney": 5553,
      "September": 5554,
      "VD": 5555,
      "ault": 5556,
      "di": 5557,
      "des": 5558,
      "onent": 5559,
      "orship": 5560,
      "Ġdraw": 5561,
      "Ġhab": 5562,
      "ĠLate": 5563,
      "ĠName": 5564,
      "ĠGil": 5565,
      "akers": 5566,
      "Ġrecently": 5567,
      "Ġ1915": 5568,
      "plement": 5569,
      "Ġissued": 5570,
      "TC": 5571,
      "rÃ©": 5572,
      "inity": 5573,
      "iced": 5574,
      "Ġmanga": 5575,
      "Ġasp": 5576,
      "ails": 5577,
      "ixed": 5578,
      "ĠNorman": 5579,
      "Ġswim": 5580,
      "ĠBroadcast": 5581,
      "ĠDougl": 5582,
      "Ġhorror": 5583,
      "Ġsemi": 5584,
      "Ġkilometers": 5585,
      "igenous": 5586,
      "94": 5587,
      "nÃ©e": 5588,
      "Ġpup": 5589,
      "Ġpunk": 5590,
      "ĠBible": 5591,
      "Ġlittle": 5592,
      "ĠLor": 5593,
      "Ġgod": 5594,
      "uls": 5595,
      "osa": 5596,
      "ĠInf": 5597,
      "ĠAlt": 5598,
      "vert": 5599,
      "place": 5600,
      "ĠAdministr": 5601,
      "ĠPrinc": 5602,
      "Ġ1913": 5603,
      "Ġblue": 5604,
      "ĠRomania": 5605,
      "Ġlegend": 5606,
      "Ġborders": 5607,
      "ĠCroat": 5608,
      "Ġboundary": 5609,
      "ĠGreater": 5610,
      "ĠPhilippines": 5611,
      "52": 5612,
      "54": 5613,
      "An": 5614,
      "HS": 5615,
      "IS": 5616,
      "MS": 5617,
      "OS": 5618,
      "cel": 5619,
      "pre": 5620,
      "rill": 5621,
      "Äĥ": 5622,
      "ĠÎ": 5623,
      "eries": 5624,
      "Ġwords": 5625,
      "ĠCab": 5626,
      "ĠLaur": 5627,
      "Ġchain": 5628,
      "ĠMargar": 5629,
      "Ġcolleg": 5630,
      "Ġrepresentative": 5631,
      "fielder": 5632,
      "borough": 5633,
      "ĠStudios": 5634,
      "osaurus": 5635,
      "Ġcopies": 5636,
      "Westphalia": 5637,
      "ĠPittsburgh": 5638,
      "dal": 5639,
      "ĠSix": 5640,
      "ears": 5641,
      "ogue": 5642,
      "quent": 5643,
      "Ġcoached": 5644,
      "Ġcommune": 5645,
      "ĠWalter": 5646,
      "Ġdistributed": 5647,
      "ĠJosÃ©": 5648,
      "bands": 5649,
      "Ġcastle": 5650,
      "Ġweekly": 5651,
      "ĠAthletics": 5652,
      "Ġdrafted": 5653,
      "Ġnominated": 5654,
      "ĠTreaties": 5655,
      "58": 5656,
      "AP": 5657,
      "Rail": 5658,
      "Th": 5659,
      "lan": 5660,
      "uv": 5661,
      "ineland": 5662,
      "isb": 5663,
      "ads": 5664,
      "Ġoriginated": 5665,
      "ĠPrim": 5666,
      "Ġmanufacturer": 5667,
      "which": 5668,
      "Ġmicro": 5669,
      "Nov": 5670,
      "pts": 5671,
      "Ġcert": 5672,
      "Ġpiano": 5673,
      "ĠSon": 5674,
      "ĠTai": 5675,
      "Ġmap": 5676,
      "ista": 5677,
      "ĠFil": 5678,
      "rome": 5679,
      "akia": 5680,
      "ĠAntar": 5681,
      "Ġ32": 5682,
      "ĠColomb": 5683,
      "ashion": 5684,
      "ĠSenior": 5685,
      "ĠBusiness": 5686,
      "Ġpeaked": 5687,
      "51": 5688,
      "NE": 5689,
      "ĠTri": 5690,
      "ĠCost": 5691,
      "iform": 5692,
      "egal": 5693,
      "ĠBruns": 5694,
      "ĠParks": 5695,
      "Ġsoon": 5696,
      "Ġexpanded": 5697,
      "Ġbroadcasting": 5698,
      "ĠPersonal": 5699,
      "06": 5700,
      "Pal": 5701,
      "US": 5702,
      "grad": 5703,
      "Ã¦": 5704,
      "ito": 5705,
      "itled": 5706,
      "Ġdra": 5707,
      "Ġhusband": 5708,
      "Ġreign": 5709,
      "Ġgreen": 5710,
      "Ġthir": 5711,
      "ĠOd": 5712,
      "Ġrivers": 5713,
      "ession": 5714,
      "ections": 5715,
      "ryst": 5716,
      "ĠAnne": 5717,
      "ĠThat": 5718,
      "Ġarchae": 5719,
      "ĠPhilip": 5720,
      "ĠBaltim": 5721,
      "ĠPlaying": 5722,
      "Ġstructures": 5723,
      "Ġwild": 5724,
      "Ġfav": 5725,
      "ĠRom": 5726,
      "ĠNBA": 5727,
      "igg": 5728,
      "Ġforward": 5729,
      "Ġdefeated": 5730,
      "regon": 5731,
      "ĠBowie": 5732,
      "ĠVerbands": 5733,
      "Ġphilosopher": 5734,
      "Ġinspired": 5735,
      "ĠDouglas": 5736,
      "ĠBrunswick": 5737,
      "Ju": 5738,
      "iel": 5739,
      "mus": 5740,
      "onst": 5741,
      "ening": 5742,
      "Ġpil": 5743,
      "ĠSport": 5744,
      "rov": 5745,
      "ĠTurn": 5746,
      "ĠCensus": 5747,
      "ĠMoh": 5748,
      "Ġdomin": 5749,
      "Ġhom": 5750,
      "ĠGulf": 5751,
      "Ġgard": 5752,
      "ocol": 5753,
      "Ġprogress": 5754,
      "Ġgoals": 5755,
      "Ġpromoted": 5756,
      "Ġnortheastern": 5757,
      "Ġvehicle": 5758,
      "ĠRepresentatives": 5759,
      "ĠBaltimore": 5760,
      "ci": 5761,
      "ĠSout": 5762,
      "oud": 5763,
      "ĠMD": 5764,
      "Ġhundred": 5765,
      "ĠFalls": 5766,
      "Ġring": 5767,
      "Ġspirit": 5768,
      "claim": 5769,
      "Ġroll": 5770,
      "Ġpublisher": 5771,
      "Ġpolicy": 5772,
      "ĠAtt": 5773,
      "Ġdistribution": 5774,
      "mitted": 5775,
      "ĠPatrick": 5776,
      "ĠSamuel": 5777,
      "Ġduo": 5778,
      "Ġmeasure": 5779,
      "ĠToday": 5780,
      ");": 5781,
      "feld": 5782,
      "Å«": 5783,
      "à¤": 5784,
      "áĥ": 5785,
      "Ġang": 5786,
      "Ġcut": 5787,
      "rell": 5788,
      "Ġpage": 5789,
      "ĠCall": 5790,
      "aming": 5791,
      "ĠLanc": 5792,
      "ĠWes": 5793,
      "Ġgave": 5794,
      "Ġstream": 5795,
      "ĠChampions": 5796,
      "eller": 5797,
      "ĠAlaska": 5798,
      "resh": 5799,
      "2021": 5800,
      "Ġnumbers": 5801,
      "Ġ1890": 5802,
      "astery": 5803,
      "Ġancest": 5804,
      "Ġfacilities": 5805,
      "ĠAthletic": 5806,
      "Ġtemper": 5807,
      "uerto": 5808,
      "57": 5809,
      "89": 5810,
      "January": 5811,
      "March": 5812,
      "bles": 5813,
      "hill": 5814,
      "ients": 5815,
      "Ġwalk": 5816,
      "ĠSultan": 5817,
      "ĠAge": 5818,
      "ĠLiter": 5819,
      "igation": 5820,
      "ĠOregon": 5821,
      "ĠKey": 5822,
      "riage": 5823,
      "Ġchap": 5824,
      "ously": 5825,
      "Ġshould": 5826,
      "Ġconserv": 5827,
      "Ġsubst": 5828,
      "iami": 5829,
      "Ġcreation": 5830,
      "Ġquarter": 5831,
      "ĠMcG": 5832,
      "ĠByz": 5833,
      "Ġcycl": 5834,
      "Ġroughly": 5835,
      "ĠLtd": 5836,
      "ĠHouston": 5837,
      "file": 5838,
      "father": 5839,
      "Ġsil": 5840,
      "Ġseg": 5841,
      "Ġmur": 5842,
      "Ġdirection": 5843,
      "olished": 5844,
      "ĠLi": 5845,
      "ĠNort": 5846,
      "ĠFried": 5847,
      "ĠKr": 5848,
      "rice": 5849,
      "Ġdeal": 5850,
      "ĠAlan": 5851,
      "sson": 5852,
      "Ġnotably": 5853,
      "Ġestate": 5854,
      "ĠScotRail": 5855,
      "Ġrailroad": 5856,
      "Ä±r": 5857,
      "Ġflag": 5858,
      "Ġinstead": 5859,
      "Ġexisted": 5860,
      "askat": 5861,
      "Ġmissing": 5862,
      "ĠAlfred": 5863,
      "ĠVerbandsgemeinde": 5864,
      "August": 5865,
      "rate": 5866,
      "Ġut": 5867,
      "Ġwa": 5868,
      "Ġfellow": 5869,
      "ĠTel": 5870,
      "Ġmax": 5871,
      "Ġlif": 5872,
      "istered": 5873,
      "aine": 5874,
      "soft": 5875,
      "Ġ90": 5876,
      "Ġfinancial": 5877,
      "ĠLouisiana": 5878,
      "Ġproposed": 5879,
      "ĠIslamic": 5880,
      "Ġcoordinates": 5881,
      "respond": 5882,
      "53": 5883,
      "ho": 5884,
      "key": 5885,
      "ĠÂ": 5886,
      "Ġfought": 5887,
      "Ġfantasy": 5888,
      "Ġborough": 5889,
      "ĠMiami": 5890,
      "Ġhap": 5891,
      "ĠGÃ¼": 5892,
      "ĠJer": 5893,
      "ĠUs": 5894,
      "Ġrh": 5895,
      "clus": 5896,
      "Ġresidence": 5897,
      "Ġimmed": 5898,
      "Ġsoap": 5899,
      "Ġfields": 5900,
      "Ġcontinues": 5901,
      "Ġmountains": 5902,
      "Ġissue": 5903,
      "Ġsoutheastern": 5904,
      "ĠMuham": 5905,
      "Ġwinners": 5906,
      "ifying": 5907,
      "KP": 5908,
      "iec": 5909,
      "Ä«": 5910,
      "Ġpet": 5911,
      "ĠSin": 5912,
      "ĠSac": 5913,
      "ĠBuck": 5914,
      "ĠPope": 5915,
      "Ġlat": 5916,
      "ĠLam": 5917,
      "Ġstrip": 5918,
      "eca": 5919,
      "Ġspoken": 5920,
      "izations": 5921,
      "wealth": 5922,
      "ĠReal": 5923,
      "Ġaccept": 5924,
      "ĠConstitution": 5925,
      "ancy": 5926,
      "Ġorganized": 5927,
      "ĠRichmond": 5928,
      "Ġdocumentary": 5929,
      "Ġreported": 5930,
      "onomous": 5931,
      "ĠMississippi": 5932,
      "IC": 5933,
      "cont": 5934,
      "lah": 5935,
      "Ġsom": 5936,
      "iti": 5937,
      "Ġfo": 5938,
      "stan": 5939,
      "ĠDC": 5940,
      "ĠLow": 5941,
      "ĠLiver": 5942,
      "lywood": 5943,
      "ĠFree": 5944,
      "ĠFarm": 5945,
      "uments": 5946,
      "Ġconfl": 5947,
      "oster": 5948,
      "Ġ64": 5949,
      "ĠAlexand": 5950,
      "Ġpossible": 5951,
      "ĠWinners": 5952,
      "Ġintersection": 5953,
      "Ġapplied": 5954,
      "ĠMargaret": 5955,
      "AT": 5956,
      "Ð¸": 5957,
      "onse": 5958,
      "Ġovers": 5959,
      "ĠCrit": 5960,
      "ĠHard": 5961,
      "ĠPuerto": 5962,
      "Ġrule": 5963,
      "aph": 5964,
      "Ġknow": 5965,
      "seud": 5966,
      "thew": 5967,
      "Ã¶y": 5968,
      "Ġmineral": 5969,
      "ĠLocal": 5970,
      "Ġchanges": 5971,
      "ĠProduct": 5972,
      "ĠHarvard": 5973,
      "ĠBuddh": 5974,
      "General": 5975,
      "Ġsubsidiary": 5976,
      "wich": 5977,
      "Ġsu": 5978,
      "ĠSaskat": 5979,
      "room": 5980,
      "ading": 5981,
      "aver": 5982,
      "pped": 5983,
      "Ġoffices": 5984,
      "Ġorganisation": 5985,
      "Ġ1911": 5986,
      "ructure": 5987,
      "Ġvalue": 5988,
      "Ġdowntown": 5989,
      "ĠFinnish": 5990,
      "November": 5991,
      "Don": 5992,
      "ii": 5993,
      "Ġpurpose": 5994,
      "Ġmakes": 5995,
      "ĠMoon": 5996,
      "ĠPop": 5997,
      "ĠWy": 5998,
      "ĠWard": 5999,
      "Ġshare": 6000,
      "active": 6001,
      "ĠBristol": 6002,
      "Ġreflect": 6003,
      "ĠKhan": 6004,
      "ĠImperial": 6005,
      "ĠFinland": 6006,
      "ĠRoger": 6007,
      "43": 6008,
      "88": 6009,
      "FC": 6010,
      "eo": 6011,
      "ĠSri": 6012,
      "ĠBron": 6013,
      "channel": 6014,
      "iva": 6015,
      "ĠNik": 6016,
      "ĠFac": 6017,
      "Ġstock": 6018,
      "osen": 6019,
      "Ġcomed": 6020,
      "ĠVis": 6021,
      "antly": 6022,
      "Ġ37": 6023,
      "ruit": 6024,
      "Ġanimals": 6025,
      "Ġadopted": 6026,
      "ĠBrothers": 6027,
      "ĠMicrosoft": 6028,
      "91": 6029,
      "ĠCow": 6030,
      "agn": 6031,
      "estic": 6032,
      "uting": 6033,
      "ĠStory": 6034,
      "Ġlocomot": 6035,
      "Ġreference": 6036,
      "ĠCons": 6037,
      "eather": 6038,
      "Ġprofession": 6039,
      "Ġdirectly": 6040,
      "ĠFormer": 6041,
      "ĠDavis": 6042,
      "Ġpriest": 6043,
      "Ġweap": 6044,
      "AR": 6045,
      "gers": 6046,
      "ui": 6047,
      "enian": 6048,
      "ĠBec": 6049,
      "Ġhip": 6050,
      "adi": 6051,
      "ĠWolf": 6052,
      "Ġgun": 6053,
      "Ġstri": 6054,
      "aware": 6055,
      "Ġcontaining": 6056,
      "Ġ70": 6057,
      "Ġarticle": 6058,
      "2002": 6059,
      "ĠRailroad": 6060,
      "ĠHungarian": 6061,
      "ompass": 6062,
      "Ġpurchased": 6063,
      "ĠConfed": 6064,
      "July": 6065,
      "bishop": 6066,
      "cm": 6067,
      "ĠTar": 6068,
      "Ġhy": 6069,
      "ĠGer": 6070,
      "ĠWell": 6071,
      "ĠChampion": 6072,
      "ĠVik": 6073,
      "oker": 6074,
      "ĠBrand": 6075,
      "Ġestimated": 6076,
      "Ġsouthwestern": 6077,
      "enez": 6078,
      "ĠBelgian": 6079,
      "Ġclosely": 6080,
      "aith": 6081,
      "ners": 6082,
      "oust": 6083,
      "Ġdates": 6084,
      "ĠNBC": 6085,
      "ĠFront": 6086,
      "iah": 6087,
      "ĠKurd": 6088,
      "ĠStew": 6089,
      "ĠArena": 6090,
      "Ġadap": 6091,
      "Ġscored": 6092,
      "Ġfamilies": 6093,
      "Ġpoor": 6094,
      "Ġcoastal": 6095,
      "Ġgreatest": 6096,
      "Ġencompass": 6097,
      "BE": 6098,
      "October": 6099,
      "bed": 6100,
      "hus": 6101,
      "alan": 6102,
      "Ġbat": 6103,
      "Ġpurs": 6104,
      "ĠTax": 6105,
      "Ġdog": 6106,
      "ĠNa": 6107,
      "Ġgrant": 6108,
      "Ġstop": 6109,
      "iminal": 6110,
      "Ġadult": 6111,
      "Ġtrained": 6112,
      "formed": 6113,
      "ĠScotia": 6114,
      "ĠAdela": 6115,
      "ĠCarib": 6116,
      "ĠAllen": 6117,
      "Ġ1916": 6118,
      "Ġ1905": 6119,
      "ĠMorris": 6120,
      "Ġtwenty": 6121,
      "Ġconcert": 6122,
      "ĠVillages": 6123,
      "Ġhelped": 6124,
      "blast": 6125,
      "ĠMuhammad": 6126,
      "67": 6127,
      "May": 6128,
      "put": 6129,
      "rants": 6130,
      "Ġweeks": 6131,
      "ĠHem": 6132,
      "ĠRio": 6133,
      "ĠLith": 6134,
      "ĠLud": 6135,
      "eston": 6136,
      "ipment": 6137,
      "illed": 6138,
      "Ġprin": 6139,
      "Ġcolumn": 6140,
      "Ġproduce": 6141,
      "2001": 6142,
      "ĠBenj": 6143,
      "Ġinitial": 6144,
      "ĠGhana": 6145,
      "rupt": 6146,
      "Ġmurder": 6147,
      "59": 6148,
      "mes": 6149,
      "Ġtennis": 6150,
      "edia": 6151,
      "enge": 6152,
      "ĠTen": 6153,
      "leet": 6154,
      "ĠMult": 6155,
      "isted": 6156,
      "ĠLas": 6157,
      "ĠLov": 6158,
      "ĠNap": 6159,
      "agement": 6160,
      "osing": 6161,
      "overy": 6162,
      "apolis": 6163,
      "eper": 6164,
      "ĠShah": 6165,
      "Ġ1903": 6166,
      "ĠPerth": 6167,
      "ĠRhineland": 6168,
      "ĠConservative": 6169,
      "Ġfranchise": 6170,
      "not": 6171,
      "Ġrom": 6172,
      "Ġaer": 6173,
      "Ġsusp": 6174,
      "ĠBed": 6175,
      "ĠPot": 6176,
      "ĠPict": 6177,
      "chant": 6178,
      "agues": 6179,
      "ĠOp": 6180,
      "ibly": 6181,
      "ulty": 6182,
      "ĠZh": 6183,
      "ĠSpace": 6184,
      "ĠBarry": 6185,
      "ĠTele": 6186,
      "ĠCompet": 6187,
      "ÃŃn": 6188,
      "Ġ|-": 6189,
      "Ġactivity": 6190,
      "Ġcrime": 6191,
      "Ġturned": 6192,
      "Ġcorrespond": 6193,
      "ĠHungary": 6194,
      "ĠCommonwealth": 6195,
      "Ġsymbol": 6196,
      "ĠSeattle": 6197,
      "fish": 6198,
      "Ð¾": 6199,
      "released": 6200,
      "Ġpay": 6201,
      "Ġmole": 6202,
      "oli": 6203,
      "Ġhar": 6204,
      "usc": 6205,
      "Ġteaching": 6206,
      "ĠYug": 6207,
      "Ġscene": 6208,
      "ansion": 6209,
      "Ġrelations": 6210,
      "Ġpublication": 6211,
      "Ġdrug": 6212,
      "Ġconnects": 6213,
      "Ġcrossing": 6214,
      "ĠMatthew": 6215,
      "Ġelement": 6216,
      "ĠGarden": 6217,
      "Ġskiing": 6218,
      "allel": 6219,
      "ĠIraq": 6220,
      "Ġhappen": 6221,
      "vis": 6222,
      "Ġtri": 6223,
      "Ġtrip": 6224,
      "iny": 6225,
      "ĠSR": 6226,
      "omic": 6227,
      "Ġlay": 6228,
      "ĠDod": 6229,
      "ĠNar": 6230,
      "ĠNiger": 6231,
      "iring": 6232,
      "emic": 6233,
      "rack": 6234,
      "ople": 6235,
      "Ġroyal": 6236,
      "ĠGlen": 6237,
      "omeranian": 6238,
      "Ġscientist": 6239,
      "ĠSquare": 6240,
      "ĠTamil": 6241,
      "ĠSunday": 6242,
      "Palatinate": 6243,
      "lahoma": 6244,
      "kh": 6245,
      "Ġinstitut": 6246,
      "Ġfishing": 6247,
      "ĠSr": 6248,
      "rovers": 6249,
      "amber": 6250,
      "oles": 6251,
      "ĠNam": 6252,
      "ĠJose": 6253,
      "aging": 6254,
      "Ġcome": 6255,
      "odore": 6256,
      "antry": 6257,
      "Ġlevels": 6258,
      "Ġformation": 6259,
      "Ġsubd": 6260,
      "Ġ177": 6261,
      "Ġlistings": 6262,
      "Ġmove": 6263,
      "ĠPolice": 6264,
      "Ġgrowth": 6265,
      "ĠTrophy": 6266,
      "Ġnicknamed": 6267,
      "holm": 6268,
      "Ġchairman": 6269,
      "Sc": 6270,
      "oen": 6271,
      "ÈĻ": 6272,
      "org": 6273,
      "Ġbene": 6274,
      "ĠTan": 6275,
      "ĠPrag": 6276,
      "ĠLog": 6277,
      "ivity": 6278,
      "ĠWin": 6279,
      "ĠKl": 6280,
      "Ġvenue": 6281,
      "ables": 6282,
      "Ġspelled": 6283,
      "oks": 6284,
      "inder": 6285,
      "othing": 6286,
      "mingham": 6287,
      "Ġfrequently": 6288,
      "ĠSlovenia": 6289,
      "Ġcommissioned": 6290,
      "Ġresidential": 6291,
      "Ġsucceeded": 6292,
      "ĠBroadcasting": 6293,
      "49": 6294,
      "RA": 6295,
      "eam": 6296,
      "light": 6297,
      "uy": 6298,
      "Ġinaug": 6299,
      "ĠMethod": 6300,
      "ĠBenn": 6301,
      "ĠBachelor": 6302,
      "ĠIce": 6303,
      "Ġlove": 6304,
      "ĠEach": 6305,
      "raine": 6306,
      "ĠJord": 6307,
      "Ġconvent": 6308,
      "under": 6309,
      "Ġresidents": 6310,
      "ĠAdd": 6311,
      "Ġdebuted": 6312,
      "Ġnovelist": 6313,
      "Ġannually": 6314,
      "ĠRoberts": 6315,
      "Ġportray": 6316,
      "Ġthemsel": 6317,
      "Ġstarred": 6318,
      "ĠServices": 6319,
      "ĠBetween": 6320,
      "Ġmachine": 6321,
      "Ġdisease": 6322,
      "ĠLiverpool": 6323,
      "ĠAdelaide": 6324,
      "April": 6325,
      "pet": 6326,
      "Ġwaters": 6327,
      "Ġcable": 6328,
      "Ġpow": 6329,
      "ĠAuthor": 6330,
      "ĠBorough": 6331,
      "Ġhydro": 6332,
      "Ġlik": 6333,
      "Ġteen": 6334,
      "ĠProject": 6335,
      "ibility": 6336,
      "spec": 6337,
      "thes": 6338,
      "ĠDelaware": 6339,
      "ĠCarlos": 6340,
      "ĠBowl": 6341,
      "Ġinfluence": 6342,
      "Ġdrums": 6343,
      "ĠBroadway": 6344,
      "mont": 6345,
      "uate": 6346,
      "Ġtarg": 6347,
      "Ġcases": 6348,
      "ĠPir": 6349,
      "stream": 6350,
      "ĠDick": 6351,
      "ĠEth": 6352,
      "otan": 6353,
      "Ġgas": 6354,
      "ĠKa": 6355,
      "Ġspect": 6356,
      "Ġpartner": 6357,
      "Ġshot": 6358,
      "aceous": 6359,
      "chewan": 6360,
      "ĠTurin": 6361,
      "Ġterminus": 6362,
      "ception": 6363,
      "Ġtechnique": 6364,
      "Ġprotect": 6365,
      "ĠVillage": 6366,
      "Ġgraduating": 6367,
      "Ġachieved": 6368,
      "Ġnuclear": 6369,
      "Ġagricultural": 6370,
      "ĠCollins": 6371,
      "ĠHampshire": 6372,
      "elligence": 6373,
      "ĠBenjamin": 6374,
      "Ġthemselves": 6375,
      "mund": 6376,
      "wald": 6377,
      "Ġtheme": 6378,
      "ĠMach": 6379,
      "ĠDVD": 6380,
      "ĠFe": 6381,
      "ĠEc": 6382,
      "ulated": 6383,
      "Ġvess": 6384,
      "Ġkm": 6385,
      "Ġchron": 6386,
      "angel": 6387,
      "Ġcaptain": 6388,
      "Ġblood": 6389,
      "Ã¸r": 6390,
      "Ġperforming": 6391,
      "ĠMetro": 6392,
      "Ġpredecess": 6393,
      "Ġranked": 6394,
      "ĠKirk": 6395,
      "ĠRatifications": 6396,
      "\").": 6397,
      "92": 6398,
      "hard": 6399,
      "Ġap": 6400,
      "onian": 6401,
      "ori": 6402,
      "rect": 6403,
      "ĠAy": 6404,
      "ami": 6405,
      "ĠPa": 6406,
      "ando": 6407,
      "iants": 6408,
      "osm": 6409,
      "rying": 6410,
      "Ġ36": 6411,
      "Ġadapt": 6412,
      "ghan": 6413,
      "Ġprec": 6414,
      "Ġlongest": 6415,
      "Ġclasses": 6416,
      "Ġ1909": 6417,
      "Ġoffered": 6418,
      "Ġvictory": 6419,
      "ĠSaskatchewan": 6420,
      "41": 6421,
      "LC": 6422,
      "arat": 6423,
      "ĠTig": 6424,
      "lets": 6425,
      "ĠMurr": 6426,
      "ĠPun": 6427,
      "ĠPap": 6428,
      "Ġhospital": 6429,
      "adow": 6430,
      "Ġgre": 6431,
      "ĠKings": 6432,
      "Ġcoal": 6433,
      "Ġmodels": 6434,
      "cester": 6435,
      "Ġpasses": 6436,
      "Ġindependence": 6437,
      "Ġmusicians": 6438,
      "Ġcircuit": 6439,
      "Ġmathematician": 6440,
      "Ġheadquartered": 6441,
      "Ġsequel": 6442,
      "ĠOklahoma": 6443,
      "ĠLady": 6444,
      "purpose": 6445,
      "onomy": 6446,
      "Ġbow": 6447,
      "ĠTrade": 6448,
      "ĠManu": 6449,
      "Ġloss": 6450,
      "ĠDream": 6451,
      "ĠGa": 6452,
      "ĠGael": 6453,
      "ĠEty": 6454,
      "Ġstone": 6455,
      "umed": 6456,
      "ĠStr": 6457,
      "ranean": 6458,
      "ahn": 6459,
      "ĠSciences": 6460,
      "Ġsynd": 6461,
      "Ġarticles": 6462,
      "ĠBox": 6463,
      "Ġdescent": 6464,
      "Ġeducational": 6465,
      "Ġstands": 6466,
      "Ġsettlements": 6467,
      "ready": 6468,
      "ĠBooks": 6469,
      "ĠBirmingham": 6470,
      "Ġtransmitter": 6471,
      "EC": 6472,
      "IA": 6473,
      "burn": 6474,
      "greg": 6475,
      "hatt": 6476,
      "oj": 6477,
      "prod": 6478,
      "ype": 6479,
      "ÅĦ": 6480,
      "Ġcars": 6481,
      "ĠCle": 6482,
      "ĠCret": 6483,
      "ĠNat": 6484,
      "ĠFij": 6485,
      "Ġstra": 6486,
      "imental": 6487,
      "ully": 6488,
      "ĠOblast": 6489,
      "Ġheart": 6490,
      "phone": 6491,
      "Ġimplement": 6492,
      "ĠBrisb": 6493,
      "Ġagency": 6494,
      "Ġquick": 6495,
      "2003": 6496,
      "Ġclassic": 6497,
      "ealth": 6498,
      "Ġmagn": 6499,
      "ĠThompson": 6500,
      "Ġesc": 6501,
      "Ġsquadron": 6502,
      "Ġdestroy": 6503,
      "ĠUtah": 6504,
      "Ġvirt": 6505,
      "Ġproblems": 6506,
      "Ġmemory": 6507,
      "Ġvenues": 6508,
      "ĠBrisbane": 6509,
      "February": 6510,
      "po": 6511,
      "zen": 6512,
      "arus": 6513,
      "ĠBan": 6514,
      "ĠRan": 6515,
      "ĠDJ": 6516,
      "ĠLok": 6517,
      "ĠLank": 6518,
      "ĠFri": 6519,
      "ĠJane": 6520,
      "Ġgives": 6521,
      "ipe": 6522,
      "ellite": 6523,
      "Ġyellow": 6524,
      "ĠGuard": 6525,
      "aurus": 6526,
      "ometry": 6527,
      "Ġdepart": 6528,
      "Ġ1898": 6529,
      "Ġgrowing": 6530,
      "Ġsurrounded": 6531,
      "Ġcomprises": 6532,
      "ĠAncient": 6533,
      "film": 6534,
      "gg": 6535,
      "lock": 6536,
      "wig": 6537,
      "zh": 6538,
      "Ġtheater": 6539,
      "Ġsnow": 6540,
      "Ġfast": 6541,
      "ĠMit": 6542,
      "olas": 6543,
      "ĠPubl": 6544,
      "cha": 6545,
      "ĠGran": 6546,
      "ĠEag": 6547,
      "ello": 6548,
      "Ġshared": 6549,
      "ampton": 6550,
      "ĠColon": 6551,
      "ĠShip": 6552,
      "Ġpublishing": 6553,
      "Ġtrains": 6554,
      "Ġsecurity": 6555,
      "aux": 6556,
      "Ġcompete": 6557,
      "Ã¶r": 6558,
      "ĠRomanian": 6559,
      "Ġaddress": 6560,
      "Ġanimal": 6561,
      "Ġeconomy": 6562,
      "Ġentirely": 6563,
      "rine": 6564,
      "uh": 6565,
      "Ã´": 6566,
      "Ġpath": 6567,
      "ĠCult": 6568,
      "ĠIl": 6569,
      "ĠRand": 6570,
      "ĠNick": 6571,
      "ĠFame": 6572,
      "ĠWrestling": 6573,
      "raction": 6574,
      "Ġeighth": 6575,
      "acement": 6576,
      "ĠVar": 6577,
      "Ġspread": 6578,
      "ibl": 6579,
      "Ġsched": 6580,
      "ĠPlace": 6581,
      "Ġindic": 6582,
      "Ġagent": 6583,
      "Ġmedicine": 6584,
      "Ġrepres": 6585,
      "Ġoccurs": 6586,
      "Ġsuccessor": 6587,
      "Ġlegisl": 6588,
      "Ġmaterials": 6589,
      "Ġconducted": 6590,
      "ĠWayne": 6591,
      "Ġathletes": 6592,
      "ĠOttoman": 6593,
      "ĠBruce": 6594,
      "Ġadapted": 6595,
      "87": 6596,
      "CM": 6597,
      "uters": 6598,
      "including": 6599,
      "ĠBeg": 6600,
      "ĠRab": 6601,
      "urches": 6602,
      "char": 6603,
      "ĠLin": 6604,
      "ĠGab": 6605,
      "ocated": 6606,
      "ugu": 6607,
      "ques": 6608,
      "ĠArn": 6609,
      "Ġamount": 6610,
      "ledge": 6611,
      "Ġadditional": 6612,
      "Ġpassenger": 6613,
      "Ġtranslated": 6614,
      "ĠSquadron": 6615,
      "Ġbehav": 6616,
      "Mar": 6617,
      "hat": 6618,
      "Ġox": 6619,
      "rec": 6620,
      "Ġbran": 6621,
      "Ġpack": 6622,
      "ĠMik": 6623,
      "ĠPur": 6624,
      "ĠEs": 6625,
      "ĠInternet": 6626,
      "Ġrate": 6627,
      "Ġvic": 6628,
      "Ġarc": 6629,
      "izard": 6630,
      "Ġcontrovers": 6631,
      "Ġacts": 6632,
      "ĠSha": 6633,
      "Ġmetropolitan": 6634,
      "ĠWho": 6635,
      "Ġtitled": 6636,
      "Ġextinct": 6637,
      "Ġobtained": 6638,
      "Ġbackground": 6639,
      "Ġtwelve": 6640,
      "ĠInterstate": 6641,
      "Ġsupported": 6642,
      "Ġexplor": 6643,
      "ĠArabic": 6644,
      "ĠSeven": 6645,
      "ĠSerbia": 6646,
      "Ġhabit": 6647,
      "ĠStewart": 6648,
      "long": 6649,
      "rin": 6650,
      "ÏĦ": 6651,
      "atab": 6652,
      "Ġsal": 6653,
      "Ġinstitution": 6654,
      "Ġfashion": 6655,
      "Ġpurp": 6656,
      "ĠSn": 6657,
      "ĠBeat": 6658,
      "rak": 6659,
      "Ġstores": 6660,
      "utt": 6661,
      "ĠStone": 6662,
      "Ġvo": 6663,
      "ĠAli": 6664,
      "ĠAustin": 6665,
      "aza": 6666,
      "Ġproviding": 6667,
      "ĠCooper": 6668,
      "Ġgeneration": 6669,
      "ĠFranklin": 6670,
      "ĠEstablished": 6671,
      "Ġestablishment": 6672,
      "Ġnickname": 6673,
      "ĠGirls": 6674,
      "ĠVietnam": 6675,
      "ĠEtymology": 6676,
      "05": 6677,
      "June": 6678,
      "Ġ+": 6679,
      "heel": 6680,
      "Ġbur": 6681,
      "ĠMall": 6682,
      "ĠHand": 6683,
      "ĠPow": 6684,
      "isters": 6685,
      "ĠDyn": 6686,
      "ĠNag": 6687,
      "ĠGi": 6688,
      "ido": 6689,
      "estyle": 6690,
      "oured": 6691,
      "Ġcommand": 6692,
      "ĠConc": 6693,
      "box": 6694,
      "Ġ1906": 6695,
      "ĠDespite": 6696,
      "Ġdriver": 6697,
      "Ġprojects": 6698,
      "Ġcolonial": 6699,
      "ĠBengal": 6700,
      "IT": 6701,
      "Ġop": 6702,
      "eding": 6703,
      "edom": 6704,
      "Ġmel": 6705,
      "Ġlit": 6706,
      "ĠEston": 6707,
      "oche": 6708,
      "ĠAnna": 6709,
      "Ġactors": 6710,
      "Ġimage": 6711,
      "Ġmean": 6712,
      "Ġoperate": 6713,
      "Ġremov": 6714,
      "Ġlonger": 6715,
      "Ġquant": 6716,
      "Ġdescribes": 6717,
      "Ġhorse": 6718,
      "Ã¢nia": 6719,
      "Ġcaused": 6720,
      "Ġtraditionally": 6721,
      "ĠIndependent": 6722,
      "ĠJournal": 6723,
      "ĠByzantine": 6724,
      "93": 6725,
      "IP": 6726,
      "mm": 6727,
      "nov": 6728,
      "Ġfr": 6729,
      "Ġfil": 6730,
      "ĠRem": 6731,
      "ĠFal": 6732,
      "ĠEmer": 6733,
      "ĠJama": 6734,
      "Ġalph": 6735,
      "rict": 6736,
      "Ġclimate": 6737,
      "ĠCanal": 6738,
      "ĠShort": 6739,
      "ĠComposition": 6740,
      "Ġyoungest": 6741,
      "Ġtechnical": 6742,
      "Ġphysics": 6743,
      "Ġboundaries": 6744,
      "Ġidentified": 6745,
      "ĠCornwall": 6746,
      "Ġhotel": 6747,
      "Ġrepresents": 6748,
      "01": 6749,
      "Sh": 6750,
      "iately": 6751,
      "enberg": 6752,
      "Ġanime": 6753,
      "Ġcurr": 6754,
      "ĠGord": 6755,
      "ĠKat": 6756,
      "orning": 6757,
      "Ġshown": 6758,
      "Ġuncle": 6759,
      "anner": 6760,
      "Ġmedalist": 6761,
      "ĠOrchestra": 6762,
      "ĠAfghan": 6763,
      "Ġdescend": 6764,
      "Ġclassified": 6765,
      "Ġgrade": 6766,
      "ĠAndre": 6767,
      "Ġpassed": 6768,
      "Ġmanufactured": 6769,
      "Ġbriefly": 6770,
      "ĠTemple": 6771,
      "ĠArkansas": 6772,
      "eenth": 6773,
      "fjord": 6774,
      "get": 6775,
      "Ġcam": 6776,
      "Ġbanks": 6777,
      "eli": 6778,
      "urance": 6779,
      "Ġstret": 6780,
      "ĠKev": 6781,
      "ĠInformation": 6782,
      "gebra": 6783,
      "rier": 6784,
      "cluded": 6785,
      "Ġmedium": 6786,
      "Ġdevice": 6787,
      "ĠPhill": 6788,
      "Ġquest": 6789,
      "Ġflat": 6790,
      "Ġ1899": 6791,
      "1999": 6792,
      "Ġequipment": 6793,
      "Ġcombat": 6794,
      "ĠDiocese": 6795,
      "Ġvisual": 6796,
      "Ġchampionships": 6797,
      "Ġpredomin": 6798,
      "ĠBernard": 6799,
      "ĠJordan": 6800,
      "62": 6801,
      "83": 6802,
      "kes": 6803,
      "kee": 6804,
      "Ġib": 6805,
      "Ġtropical": 6806,
      "inema": 6807,
      "Ġsoccer": 6808,
      "ĠTol": 6809,
      "ĠAR": 6810,
      "ĠNow": 6811,
      "ĠNich": 6812,
      "Ġget": 6813,
      "oda": 6814,
      "ogen": 6815,
      "Ġcomposition": 6816,
      "assic": 6817,
      "Ġ45": 6818,
      "Ġtraffic": 6819,
      "ĠIsle": 6820,
      "ĠRecord": 6821,
      "ĠMedical": 6822,
      "Ġ1880": 6823,
      "Ġdoctor": 6824,
      "Ġdescribe": 6825,
      "Ġmarked": 6826,
      "Ġadministration": 6827,
      "Ġeffects": 6828,
      "Ġinfluential": 6829,
      "Ġreligion": 6830,
      "ĠUniversi": 6831,
      "Ġscreenwriter": 6832,
      "ĠMotor": 6833,
      "ĠBuffalo": 6834,
      "ĠAberde": 6835,
      "ĠLithu": 6836,
      "Am": 6837,
      "Ġinside": 6838,
      "Ġcells": 6839,
      "ĠSud": 6840,
      "ĠTrib": 6841,
      "ingen": 6842,
      "Ġ().": 6843,
      "ĠIron": 6844,
      "ĠNav": 6845,
      "iable": 6846,
      "odies": 6847,
      "ĠAlger": 6848,
      "ĠYouth": 6849,
      "Ġrob": 6850,
      "ightly": 6851,
      "Ġcontrast": 6852,
      "ĠPruss": 6853,
      "Ġleadership": 6854,
      "ĠDead": 6855,
      "Ġretail": 6856,
      "Ġextensive": 6857,
      "Ġhumans": 6858,
      "Ġphysician": 6859,
      "Ġbelongs": 6860,
      "ĠHawai": 6861,
      "ĠJesus": 6862,
      "Ġfunctions": 6863,
      "ĠMurray": 6864,
      "GC": 6865,
      "ID": 6866,
      "New": 6867,
      "hum": 6868,
      "lers": 6869,
      "maker": 6870,
      "yes": 6871,
      "Ġsales": 6872,
      "Ġsuff": 6873,
      "Ġwing": 6874,
      "Ġmart": 6875,
      "ĠPed": 6876,
      "Ġninth": 6877,
      "ĠGon": 6878,
      "rage": 6879,
      "ĠKy": 6880,
      "Ġconcent": 6881,
      "Ġchampions": 6882,
      "irement": 6883,
      "Ġleaving": 6884,
      "obe": 6885,
      "issance": 6886,
      "Ã¼n": 6887,
      "Ġsole": 6888,
      "Ġ1893": 6889,
      "ĠHerz": 6890,
      "Ġsites": 6891,
      "Ġguest": 6892,
      "Ġjunction": 6893,
      "ĠOperation": 6894,
      "Ġanalysis": 6895,
      "commun": 6896,
      "ĠYugosl": 6897,
      "ĠGaelic": 6898,
      "SS": 6899,
      "family": 6900,
      "lon": 6901,
      "ns": 6902,
      "Ġult": 6903,
      "Ġsides": 6904,
      "Ġsearch": 6905,
      "ĠCBS": 6906,
      "olph": 6907,
      "ĠHond": 6908,
      "istance": 6909,
      "ĠLuther": 6910,
      "ĠNazi": 6911,
      "Ġreach": 6912,
      "Ġalready": 6913,
      "ovich": 6914,
      "uster": 6915,
      "Ġbecomes": 6916,
      "Ġagre": 6917,
      "ĠOrth": 6918,
      "ĠCox": 6919,
      "Ġgrades": 6920,
      "Ġ1895": 6921,
      "iterranean": 6922,
      "ĠBosnia": 6923,
      "Ġrespectively": 6924,
      "ĠKildare": 6925,
      "Ġpurposes": 6926,
      "organ": 6927,
      "Ġfoss": 6928,
      "icos": 6929,
      "Ġcle": 6930,
      "ĠAFL": 6931,
      "ĠBurg": 6932,
      "ules": 6933,
      "iac": 6934,
      "ante": 6935,
      "Ġleaves": 6936,
      "iley": 6937,
      "ĠAmong": 6938,
      "Ġevidence": 6939,
      "Ġ1902": 6940,
      "Ġdecision": 6941,
      "Ġinstall": 6942,
      "Ġderives": 6943,
      "ĠCommunist": 6944,
      "Ġallows": 6945,
      "Ġbelonging": 6946,
      "ĠBulg": 6947,
      "ĠLimited": 6948,
      "ĠAlbums": 6949,
      "Ġdifficult": 6950,
      "ĠHebrew": 6951,
      "Is": 6952,
      "ea": 6953,
      "erc": 6954,
      "orus": 6955,
      "Ġinj": 6956,
      "Ġpiece": 6957,
      "ĠSide": 6958,
      "Ġmouth": 6959,
      "ĠFore": 6960,
      "ĠOm": 6961,
      "Ġboat": 6962,
      "Ġability": 6963,
      "ologies": 6964,
      "inces": 6965,
      "Ġrelatively": 6966,
      "Ġflu": 6967,
      "ĠCaptain": 6968,
      "ĠDenver": 6969,
      "ĠArgentine": 6970,
      "ĠSprings": 6971,
      "ĠAntonio": 6972,
      "Ġcategory": 6973,
      "Ġfeet": 6974,
      "Ðµ": 6975,
      "ĠBapt": 6976,
      "Ġdon": 6977,
      "ĠRow": 6978,
      "ĠRound": 6979,
      "ĠDub": 6980,
      "ĠLan": 6981,
      "ĠKan": 6982,
      "osis": 6983,
      "Ġcongress": 6984,
      "Ġchosen": 6985,
      "ĠYour": 6986,
      "Ġunique": 6987,
      "Ġcontain": 6988,
      "Ġ46": 6989,
      "urring": 6990,
      "ancing": 6991,
      "ĠDeath": 6992,
      "Ġmonastery": 6993,
      "meaning": 6994,
      "ivalent": 6995,
      "Ġpromote": 6996,
      "ĠElectric": 6997,
      "Ġperformances": 6998,
      "Ġtransferred": 6999,
      "ĠPolitical": 7000,
      "Ġceremony": 7001,
      "gorith": 7002,
      "inition": 7003,
      "Ġliber": 7004,
      "ĠDNA": 7005,
      "thlete": 7006,
      "ĠJur": 7007,
      "Ġvent": 7008,
      "eech": 7009,
      "ĠJunction": 7010,
      "ĠWhit": 7011,
      "ĠMediterranean": 7012,
      "Ġmarriage": 7013,
      "Ġjoining": 7014,
      "Ġ1888": 7015,
      "bean": 7016,
      "Ġallowed": 7017,
      "Ġoccupied": 7018,
      "ĠChildren": 7019,
      "Ġparliamentary": 7020,
      "Ġcounter": 7021,
      "Ġhappened": 7022,
      "ĠPrague": 7023,
      "81": 7024,
      "MP": 7025,
      "law": 7026,
      "rm": 7027,
      "wright": 7028,
      "Ġir": 7029,
      "Ġpan": 7030,
      "ĠPC": 7031,
      "ĠRivers": 7032,
      "Ġneg": 7033,
      "ĠFitz": 7034,
      "ulations": 7035,
      "Ġconce": 7036,
      "esse": 7037,
      "ĠVenez": 7038,
      "ĠThrough": 7039,
      "ĠMarie": 7040,
      "sea": 7041,
      "Ġprime": 7042,
      "ĠHighland": 7043,
      "atherine": 7044,
      "Ġcompetitive": 7045,
      "Ġextends": 7046,
      "Ġmoney": 7047,
      "Ġ1901": 7048,
      "1998": 7049,
      "Ġ||": 7050,
      "Ġresponse": 7051,
      "Ġcombination": 7052,
      "Ġfriends": 7053,
      "Ġaffiliate": 7054,
      "ĠFriedrich": 7055,
      "ieces": 7056,
      "hattan": 7057,
      "ĠCretaceous": 7058,
      "lines": 7059,
      "aron": 7060,
      "Ġfair": 7061,
      "ĠBilly": 7062,
      "ĠHug": 7063,
      "ĠRun": 7064,
      "uru": 7065,
      "ĠLost": 7066,
      "ĠGor": 7067,
      "otic": 7068,
      "Ġgal": 7069,
      "aved": 7070,
      "Ġkeep": 7071,
      "anger": 7072,
      "Ġunknown": 7073,
      "Ġadminist": 7074,
      "Ġorigins": 7075,
      "Ġattorney": 7076,
      "isms": 7077,
      "ĠManit": 7078,
      "ĠÃĸ": 7079,
      "Ġsitcom": 7080,
      "1996": 7081,
      "ĠResults": 7082,
      "Ġcontinuous": 7083,
      "Ġhosts": 7084,
      "Ġsoldier": 7085,
      "Ġstudying": 7086,
      "ĠGraham": 7087,
      "ĠBrooklyn": 7088,
      "ĠIsraeli": 7089,
      "Ġaudio": 7090,
      "ĠAbbey": 7091,
      "Ġpremiered": 7092,
      "Ġtrees": 7093,
      "isd": 7094,
      "Ġha": 7095,
      "Ġhits": 7096,
      "ĠLet": 7097,
      "ĠNative": 7098,
      "ĠFu": 7099,
      "ĠFern": 7100,
      "Ġstep": 7101,
      "Ġshape": 7102,
      "Ġuns": 7103,
      "weet": 7104,
      "ĠScout": 7105,
      "Ġrecordings": 7106,
      "ĠAlliance": 7107,
      "ĠPeters": 7108,
      "Ġhistorically": 7109,
      "Ġ1889": 7110,
      "ĠArmenian": 7111,
      "ĠDonald": 7112,
      "ĠApple": 7113,
      "ĠBoys": 7114,
      "ĠHotel": 7115,
      "Ġvehicles": 7116,
      "Ġpositions": 7117,
      "Ġbiggest": 7118,
      "Ġdetermine": 7119,
      "Ġoccurred": 7120,
      "Ġpioneer": 7121,
      "ĠTerritory": 7122,
      "Ġbranches": 7123,
      "ĠBulgarian": 7124,
      "Le": 7125,
      "loy": 7126,
      "Ġcous": 7127,
      "ĠAld": 7128,
      "ĠCov": 7129,
      "ĠHur": 7130,
      "ĠWeek": 7131,
      "ĠKit": 7132,
      "ĠKaz": 7133,
      "odox": 7134,
      "Ġheight": 7135,
      "Ġplot": 7136,
      "ials": 7137,
      "ource": 7138,
      "ensis": 7139,
      "Ġcontent": 7140,
      "Ġ400": 7141,
      "Ġsecretary": 7142,
      "ĠOrd": 7143,
      "ĠAdams": 7144,
      "2004": 7145,
      "2007": 7146,
      "Ġbasic": 7147,
      "orporate": 7148,
      "ipped": 7149,
      "Ġconsider": 7150,
      "ĠPalace": 7151,
      "Ġexped": 7152,
      "Ġfocused": 7153,
      "Ġtreatment": 7154,
      "Ġapplication": 7155,
      "Ġdomestic": 7156,
      "ĠSaxony": 7157,
      "Ġcorner": 7158,
      "Ġabbreviated": 7159,
      "Ġtarget": 7160,
      "03": 7161,
      "LA": 7162,
      "gra": 7163,
      "mers": 7164,
      "present": 7165,
      "wise": 7166,
      "Â°": 7167,
      "Ġsamp": 7168,
      "Ġfighting": 7169,
      "aman": 7170,
      "ĠIc": 7171,
      "ĠPrad": 7172,
      "Ġlack": 7173,
      "ĠRose": 7174,
      "ĠDra": 7175,
      "ĠNation": 7176,
      "ĠNeg": 7177,
      "umes": 7178,
      "uted": 7179,
      "acc": 7180,
      "ĠUnlike": 7181,
      "Ġexclus": 7182,
      "Ġable": 7183,
      "Ġrecre": 7184,
      "Ġformula": 7185,
      "ailing": 7186,
      "ierra": 7187,
      "ventures": 7188,
      "Ġparallel": 7189,
      "Ġdecades": 7190,
      "Ġ1870": 7191,
      "Ġroads": 7192,
      "ĠChel": 7193,
      "Ġglac": 7194,
      "Ġcricketers": 7195,
      "garia": 7196,
      "Ġphotographer": 7197,
      "Ġbassist": 7198,
      "ĠCuba": 7199,
      "ĠSomers": 7200,
      "ĠProductions": 7201,
      "ĠForeign": 7202,
      "bar": 7203,
      "folk": 7204,
      "mi": 7205,
      "onents": 7206,
      "Ġwealth": 7207,
      "Ġbott": 7208,
      "ĠSÃ£o": 7209,
      "ĠTak": 7210,
      "ĠRud": 7211,
      "ĠNAS": 7212,
      "ĠFig": 7213,
      "ĠJason": 7214,
      "ĠUntil": 7215,
      "Ġshopping": 7216,
      "Ġcontest": 7217,
      "Ġscore": 7218,
      "ailand": 7219,
      "Ġindie": 7220,
      "ĠBrig": 7221,
      "ussion": 7222,
      "Ġcarried": 7223,
      "Ġlocality": 7224,
      "ĠMedicine": 7225,
      "Ġmining": 7226,
      "Ġcovering": 7227,
      "Ġpattern": 7228,
      "Ġconductor": 7229,
      "ĠProduction": 7230,
      "Ġrequired": 7231,
      "ĠPersian": 7232,
      "ĠEngineering": 7233,
      "ĠRangers": 7234,
      "ĠBavaria": 7235,
      "ĠLiterature": 7236,
      "fort": 7237,
      "gn": 7238,
      "Ġtim": 7239,
      "inian": 7240,
      "oned": 7241,
      "Ġsens": 7242,
      "Ġwinter": 7243,
      "Ġbal": 7244,
      "ĠChem": 7245,
      "Ġtower": 7246,
      "ĠPad": 7247,
      "ĠRap": 7248,
      "ĠRights": 7249,
      "otte": 7250,
      "umin": 7251,
      "ĠInv": 7252,
      "Ġhero": 7253,
      "Ġchall": 7254,
      "ĠThird": 7255,
      "ĠMarvel": 7256,
      "Ġcommander": 7257,
      "ermanent": 7258,
      "Ġwriters": 7259,
      "Ġassigned": 7260,
      "ĠManhattan": 7261,
      "Ã³w": 7262,
      "ĠSalt": 7263,
      "ĠVictorian": 7264,
      "Ġpresence": 7265,
      "onymous": 7266,
      "Ġdistinguished": 7267,
      "ĠUniversiade": 7268,
      "'.": 7269,
      "Ind": 7270,
      "down": 7271,
      "eor": 7272,
      "length": 7273,
      "sa": 7274,
      "south": 7275,
      "zi": 7276,
      "zer": 7277,
      "onso": 7278,
      "esc": 7279,
      "Ġsa": 7280,
      "Ġinternal": 7281,
      "ĠAC": 7282,
      "Ġmall": 7283,
      "ĠMaur": 7284,
      "ĠMidd": 7285,
      "ĠMatt": 7286,
      "ĠHop": 7287,
      "Ġnations": 7288,
      "ĠLieutenant": 7289,
      "Ġreb": 7290,
      "Ġgot": 7291,
      "oca": 7292,
      "ĠRef": 7293,
      "Ġ48": 7294,
      "Ġformally": 7295,
      "Ġsuppl": 7296,
      "Ġsignal": 7297,
      "Ġ1885": 7298,
      "ĠBelarus": 7299,
      "othy": 7300,
      "ĠSalv": 7301,
      "Ġdivisions": 7302,
      "ĠMarket": 7303,
      "ĠLiberia": 7304,
      "Ġexperience": 7305,
      "Ġmerger": 7306,
      "ĠPierre": 7307,
      "Ġpitcher": 7308,
      "04": 7309,
      "71": 7310,
      "rent": 7311,
      "Ġiron": 7312,
      "isp": 7313,
      "educ": 7314,
      "Ġwrest": 7315,
      "Ġanaly": 7316,
      "amo": 7317,
      "stown": 7318,
      "ĠDue": 7319,
      "ĠDave": 7320,
      "ĠLakes": 7321,
      "iday": 7322,
      "Ġalgebra": 7323,
      "ĠOri": 7324,
      "ovo": 7325,
      "oreg": 7326,
      "ĠThailand": 7327,
      "Ġpoem": 7328,
      "Ġauthority": 7329,
      "1995": 7330,
      "Ġgoing": 7331,
      "ĠStudies": 7332,
      "Ġweight": 7333,
      "Ġrecognition": 7334,
      "Ġoppos": 7335,
      "ĠBulgaria": 7336,
      "Ġsummary": 7337,
      "Ġletters": 7338,
      "Ġrapid": 7339,
      "ĠIndonesia": 7340,
      "ĠMethodist": 7341,
      "ĠAuthority": 7342,
      "ĠKevin": 7343,
      "09": 7344,
      "RS": 7345,
      "haps": 7346,
      "later": 7347,
      "rator": 7348,
      "anes": 7349,
      "Ġpseud": 7350,
      "ĠTrad": 7351,
      "ĠRey": 7352,
      "ĠDh": 7353,
      "ĠFive": 7354,
      "irt": 7355,
      "Ġvice": 7356,
      "Ġbeaut": 7357,
      "Ġjob": 7358,
      "Ġ49": 7359,
      "Ġraces": 7360,
      "Ġpopulated": 7361,
      "Ġregistered": 7362,
      "Ġfinishing": 7363,
      "ĠGuine": 7364,
      "Ġ1904": 7365,
      "Ġdisplay": 7366,
      "Ġtherefore": 7367,
      "1997": 7368,
      "Ġconstituencies": 7369,
      "ĠPeace": 7370,
      "ĠDoctor": 7371,
      "Ġnarrow": 7372,
      "ĠCircle": 7373,
      "Ġpredecessor": 7374,
      "ĠVenezuel": 7375,
      "08": 7376,
      "ging": 7377,
      "jo": 7378,
      "Ġwine": 7379,
      "Ġbatt": 7380,
      "ĠAT": 7381,
      "ĠCart": 7382,
      "ĠMind": 7383,
      "ĠDeb": 7384,
      "Ġforests": 7385,
      "otype": 7386,
      "Ġsteel": 7387,
      "ĠStaff": 7388,
      "Ġconcluded": 7389,
      "Ġspring": 7390,
      "rypt": 7391,
      "ĠColleg": 7392,
      "Ġfoundation": 7393,
      "Ġtrail": 7394,
      "emble": 7395,
      "Ġflight": 7396,
      "Ġ1907": 7397,
      "Ġsoundtrack": 7398,
      "ĠMoore": 7399,
      "ĠParalympics": 7400,
      "Ġinstitutions": 7401,
      "atabase": 7402,
      "Sp": 7403,
      "br": 7404,
      "winning": 7405,
      "ÃŁ": 7406,
      "erate": 7407,
      "Ġcann": 7408,
      "ĠAyr": 7409,
      "leas": 7410,
      "Ġdivers": 7411,
      "ĠRet": 7412,
      "Ġforced": 7413,
      "emen": 7414,
      "Ġheav": 7415,
      "ĠMars": 7416,
      "Ġago": 7417,
      "Ġcompeting": 7418,
      "ĠDean": 7419,
      "Ġorganizations": 7420,
      "Ġskaters": 7421,
      "Ġends": 7422,
      "ĠAngl": 7423,
      "ĠHollywood": 7424,
      "Ġinternationally": 7425,
      "Ġmidfielder": 7426,
      "Ġbroadcasts": 7427,
      "Ġsupporting": 7428,
      "Ġpreserv": 7429,
      "Ġsatellite": 7430,
      "ĠStanley": 7431,
      "ĠMunich": 7432,
      "Ġsafety": 7433,
      "ĠStandard": 7434,
      "Ġcitizens": 7435,
      "ĠCaribbean": 7436,
      "65": 7437,
      "icts": 7438,
      "Ġpur": 7439,
      "ĠTun": 7440,
      "aments": 7441,
      "ĠHere": 7442,
      "ĠRy": 7443,
      "etime": 7444,
      "ĠDom": 7445,
      "ĠLP": 7446,
      "ĠNash": 7447,
      "Ġnorthwestern": 7448,
      "ĠWalker": 7449,
      "1990": 7450,
      "Ġcharts": 7451,
      "ĠÅł": 7452,
      "Ġinvestig": 7453,
      "ĠSerbian": 7454,
      "Ġletter": 7455,
      "Ġpalace": 7456,
      "ĠTaiwan": 7457,
      "Ġibn": 7458,
      "master": 7459,
      "album": 7460,
      "Ġcodes": 7461,
      "rehens": 7462,
      "ĠMission": 7463,
      "ĠBranch": 7464,
      "Ġhun": 7465,
      "ĠRol": 7466,
      "ĠWa": 7467,
      "ĠIns": 7468,
      "Ġrare": 7469,
      "abet": 7470,
      "aints": 7471,
      "ĠVinc": 7472,
      "ĠVerm": 7473,
      "eva": 7474,
      "ĠJuan": 7475,
      "ausen": 7476,
      "Ġcollected": 7477,
      "Ġinhabited": 7478,
      "ĠUrban": 7479,
      "ĠKelly": 7480,
      "Ġmythology": 7481,
      "ĠBuilding": 7482,
      "mphony": 7483,
      "Ġconflict": 7484,
      "ĠIceland": 7485,
      "',": 7486,
      "02": 7487,
      "gate": 7488,
      "Ġathlete": 7489,
      "alg": 7490,
      "Ġface": 7491,
      "Ġfeed": 7492,
      "Ġpian": 7493,
      "Ġphen": 7494,
      "cho": 7495,
      "ĠNaval": 7496,
      "ĠGO": 7497,
      "Ġreaching": 7498,
      "Ġalgorith": 7499,
      "Ġbeach": 7500,
      "egov": 7501,
      "Ġadvert": 7502,
      "Ġcontained": 7503,
      "sex": 7504,
      "Ġheritage": 7505,
      "ĠExpress": 7506,
      "Ġsets": 7507,
      "Ġproducing": 7508,
      "Ġcrew": 7509,
      "ĠComputer": 7510,
      "ĠAbra": 7511,
      "Ġneed": 7512,
      "Ġlandsc": 7513,
      "Ġlaws": 7514,
      "Ġdeliver": 7515,
      "Ġeleven": 7516,
      "Ġinfluenced": 7517,
      "ĠCathedral": 7518,
      "ĠIranian": 7519,
      "Ġlearning": 7520,
      "ĠLatv": 7521,
      "ĠErnest": 7522,
      "ĠColombia": 7523,
      "Ġspiritual": 7524,
      "do": 7525,
      "Ãł": 7526,
      "Ġtre": 7527,
      "ĠSic": 7528,
      "Ġhall": 7529,
      "otes": 7530,
      "imin": 7531,
      "uda": 7532,
      "akk": 7533,
      "ĠChand": 7534,
      "ĠAlong": 7535,
      "prise": 7536,
      "Ġindigenous": 7537,
      "Ġattend": 7538,
      "ĠRegiment": 7539,
      "ĠGuy": 7540,
      "Ġprogramme": 7541,
      "Ġchildhood": 7542,
      "ĠCommunications": 7543,
      "Ġgeometry": 7544,
      "Ġpainting": 7545,
      "Ġexistence": 7546,
      "Ġschol": 7547,
      "Ġoccupation": 7548,
      "Ġobjects": 7549,
      "ĠSongs": 7550,
      "Ġclaimed": 7551,
      "Ġconverted": 7552,
      "Ġeldest": 7553,
      "Ġprotein": 7554,
      "Ġcomedian": 7555,
      "AFL": 7556,
      "Bl": 7557,
      "PC": 7558,
      "see": 7559,
      "zo": 7560,
      "origin": 7561,
      "iser": 7562,
      "Ġog": 7563,
      "atur": 7564,
      "aro": 7565,
      "ĠTit": 7566,
      "leans": 7567,
      "Ġmobile": 7568,
      "star": 7569,
      "ĠLibrary": 7570,
      "ĠKil": 7571,
      "opal": 7572,
      "Ġshoot": 7573,
      "Ġ33": 7574,
      "Ġpercent": 7575,
      "reng": 7576,
      "Ġconsum": 7577,
      "Ġenter": 7578,
      "viously": 7579,
      "ĠSecurity": 7580,
      "ĠSkating": 7581,
      "ĠProtected": 7582,
      "ĠGoiÃ¢nia": 7583,
      "Ġemployed": 7584,
      "ĠGameplay": 7585,
      "Ġmerchant": 7586,
      "ĠCosta": 7587,
      "Ġprofessionally": 7588,
      "ĠManitoba": 7589,
      "64": 7590,
      "84": 7591,
      "IN": 7592,
      "bat": 7593,
      "core": 7594,
      "Ġx": 7595,
      "ĠSak": 7596,
      "Ġ120": 7597,
      "ĠBird": 7598,
      "Ġhyp": 7599,
      "Ġliqu": 7600,
      "ĠEqu": 7601,
      "emet": 7602,
      "ĠKu": 7603,
      "Ġvary": 7604,
      "ipel": 7605,
      "odeca": 7606,
      "ĠVic": 7607,
      "elli": 7608,
      "Ġspr": 7609,
      "Ġ300": 7610,
      "Ġboys": 7611,
      "Ġtownship": 7612,
      "Ġindex": 7613,
      "ĠCommons": 7614,
      "ĠAbout": 7615,
      "ĠAnglo": 7616,
      "ĠPrefecture": 7617,
      "ĠTrust": 7618,
      "Ġcondition": 7619,
      "Ġconnecting": 7620,
      "Ġequal": 7621,
      "Ġglass": 7622,
      "ĠMaine": 7623,
      "Ġsynthes": 7624,
      "ĠPersonnel": 7625,
      "Ġidea": 7626,
      "GA": 7627,
      "MA": 7628,
      "ÑĢ": 7629,
      "á¸": 7630,
      "Ġsections": 7631,
      "asa": 7632,
      "rock": 7633,
      "roke": 7634,
      "ĠMans": 7635,
      "amic": 7636,
      "ĠPra": 7637,
      "ĠPav": 7638,
      "unte": 7639,
      "Ġreform": 7640,
      "ĠWright": 7641,
      "ĠChair": 7642,
      "Ġspot": 7643,
      "Ġarg": 7644,
      "Ġarrang": 7645,
      "Ġshares": 7646,
      "Ġscen": 7647,
      "Ġattention": 7648,
      "ĠOrleans": 7649,
      "Ġsetting": 7650,
      "ĠCook": 7651,
      "keley": 7652,
      "Ġremain": 7653,
      "ĠChristmas": 7654,
      "Ġquality": 7655,
      "Ġminutes": 7656,
      "Ġconditions": 7657,
      "Ġpowerful": 7658,
      "Ġequivalent": 7659,
      "Ġglobal": 7660,
      "unnel": 7661,
      "uffer": 7662,
      "ĠSocialist": 7663,
      "Ġcreating": 7664,
      "ĠUkraine": 7665,
      "ĠGrammar": 7666,
      "ĠBecause": 7667,
      "ĠPradesh": 7668,
      "):": 7669,
      "cular": 7670,
      "lie": 7671,
      "pa": 7672,
      "Ã°": 7673,
      "Ġwins": 7674,
      "Ġpict": 7675,
      "ĠSierra": 7676,
      "Ġmig": 7677,
      "ĠPas": 7678,
      "ĠRacing": 7679,
      "chi": 7680,
      "ĠLock": 7681,
      "uses": 7682,
      "Ġearth": 7683,
      "Ġstay": 7684,
      "Ġvide": 7685,
      "ĠAlph": 7686,
      "iamond": 7687,
      "ĠPhys": 7688,
      "ĠNorfolk": 7689,
      "Ġfinally": 7690,
      "Ġclassification": 7691,
      "Ã¶n": 7692,
      "Ġdecl": 7693,
      "Ġ1897": 7694,
      "Ġoccas": 7695,
      "Ġgenera": 7696,
      "ĠSky": 7697,
      "Ġartistic": 7698,
      "Ġliterally": 7699,
      "ythm": 7700,
      "Ġinstruments": 7701,
      "iques": 7702,
      "ĠDiscovery": 7703,
      "ĠJohannes": 7704,
      "ĠStockholm": 7705,
      "ĠFilip": 7706,
      "Ġimmediately": 7707,
      "AD": 7708,
      "SE": 7709,
      "vik": 7710,
      "á»": 7711,
      "oni": 7712,
      "alom": 7713,
      "Ġwave": 7714,
      "Ġfresh": 7715,
      "Ġcause": 7716,
      "ĠTog": 7717,
      "ĠMol": 7718,
      "Ġdancer": 7719,
      "ĠEug": 7720,
      "imens": 7721,
      "ulate": 7722,
      "ĠStein": 7723,
      "ffield": 7724,
      "Ġwhether": 7725,
      "ĠShel": 7726,
      "Ġprep": 7727,
      "ĠBlood": 7728,
      "ĠAssoci": 7729,
      "ĠManagement": 7730,
      "ĠÃĺ": 7731,
      "Ġapproach": 7732,
      "ĠRussell": 7733,
      "ĠSecret": 7734,
      "Ġpresenter": 7735,
      "ĠNeigh": 7736,
      "ĠGrant": 7737,
      "olutionary": 7738,
      "Ġcriminal": 7739,
      "Ġindividuals": 7740,
      "Ġmethods": 7741,
      "foundland": 7742,
      "erbai": 7743,
      "Ġenvironmental": 7744,
      "Ġsexual": 7745,
      "ĠSoutheast": 7746,
      "ĠOrthodox": 7747,
      "ĠGuinea": 7748,
      "Ne": 7749,
      "bul": 7750,
      "top": 7751,
      "erts": 7752,
      "onn": 7753,
      "enos": 7754,
      "ĠSv": 7755,
      "ĠCher": 7756,
      "ĠBuc": 7757,
      "Ġdating": 7758,
      "ĠFish": 7759,
      "ĠFather": 7760,
      "uma": 7761,
      "uled": 7762,
      "Ġalt": 7763,
      "ĠKrist": 7764,
      "ardo": 7765,
      "ountry": 7766,
      "Ġarms": 7767,
      "ĠEnvironment": 7768,
      "teenth": 7769,
      "Ġsinging": 7770,
      "Ġenroll": 7771,
      "Ġmainland": 7772,
      "ontin": 7773,
      "ĠAmateur": 7774,
      "Ġeducator": 7775,
      "Ġ1894": 7776,
      "Ġ1867": 7777,
      "Ġdegrees": 7778,
      "Ġholding": 7779,
      "Ġfigures": 7780,
      "Ġhousing": 7781,
      "Ġcomprising": 7782,
      "build": 7783,
      "Ġapplications": 7784,
      "Ġcandidate": 7785,
      "Ġtalent": 7786,
      "Ġpredominantly": 7787,
      "78": 7788,
      "bal": 7789,
      "kir": 7790,
      "mith": 7791,
      "nal": 7792,
      "ving": 7793,
      "yles": 7794,
      "Ð½": 7795,
      "Ġfully": 7796,
      "Ġbomb": 7797,
      "Ġpaint": 7798,
      "ĠSoccer": 7799,
      "ĠCrow": 7800,
      "ĠBath": 7801,
      "ĠPor": 7802,
      "ĠPomeranian": 7803,
      "Ġlibrary": 7804,
      "Ġnaval": 7805,
      "ĠLane": 7806,
      "ĠFellow": 7807,
      "ĠWor": 7808,
      "Ġalleg": 7809,
      "abad": 7810,
      "oga": 7811,
      "Ġlocally": 7812,
      "Ġaccomp": 7813,
      "ĠExt": 7814,
      "ĠMayor": 7815,
      "ĠCommand": 7816,
      "engers": 7817,
      "Ġshortly": 7818,
      "Ġruled": 7819,
      "Ġtranslation": 7820,
      "Ġpossibly": 7821,
      "related": 7822,
      "ĠConstruction": 7823,
      "ĠAzerbai": 7824,
      "...": 7825,
      "Ġcategories": 7826,
      "Ġetc": 7827,
      "Ġfrogs": 7828,
      "Ġmaximum": 7829,
      "Ġgranted": 7830,
      "61": 7831,
      "Eng": 7832,
      "mat": 7833,
      "rase": 7834,
      "Å¾": 7835,
      "Ġsuit": 7836,
      "Ġwrestling": 7837,
      "Ġfailed": 7838,
      "Ġcore": 7839,
      "ĠSid": 7840,
      "ĠChen": 7841,
      "ĠMes": 7842,
      "ĠHunt": 7843,
      "ĠFras": 7844,
      "utation": 7845,
      "ĠKill": 7846,
      "Ġcoming": 7847,
      "udi": 7848,
      "illo": 7849,
      "ĠNewfoundland": 7850,
      "Ġarran": 7851,
      "Ġunus": 7852,
      "ashi": 7853,
      "ĠCole": 7854,
      "sterdam": 7855,
      "ĠHeritage": 7856,
      "Ġtrue": 7857,
      "ĠBerkeley": 7858,
      "Ġseparated": 7859,
      "Ġfocuses": 7860,
      "Station": 7861,
      "Ġincrease": 7862,
      "ĠSabha": 7863,
      "built": 7864,
      "Ġmeeting": 7865,
      "ĠDominican": 7866,
      "Ġneighbourhoods": 7867,
      "Ġjurisd": 7868,
      "ĠPrincess": 7869,
      "celona": 7870,
      "ĠAberdeen": 7871,
      "ĠAbraham": 7872,
      "Can": 7873,
      "coh": 7874,
      "hr": 7875,
      "nership": 7876,
      "orate": 7877,
      "Ġsoci": 7878,
      "repr": 7879,
      "recht": 7880,
      "Ġbillion": 7881,
      "ĠCer": 7882,
      "ĠCru": 7883,
      "ĠCinc": 7884,
      "ĠBM": 7885,
      "ĠBaker": 7886,
      "ĠRot": 7887,
      "ĠRAF": 7888,
      "ĠNel": 7889,
      "ĠFel": 7890,
      "ĠOrange": 7891,
      "embered": 7892,
      "ĠYale": 7893,
      "ĠThough": 7894,
      "iki": 7895,
      "ĠSheffield": 7896,
      "Ġconsecutive": 7897,
      "Ġaged": 7898,
      "ĠCarn": 7899,
      "Ġcharge": 7900,
      "Ġrunner": 7901,
      "Ġ1891": 7902,
      "Ġmarine": 7903,
      "Ġ1874": 7904,
      "ĠText": 7905,
      "ĠReserve": 7906,
      "Ġjustice": 7907,
      "1980": 7908,
      "ĠCrown": 7909,
      "Ġcritical": 7910,
      "Ġgoods": 7911,
      "ĠOttawa": 7912,
      "ĠElementary": 7913,
      "Ġcustom": 7914,
      "claimed": 7915,
      "AN": 7916,
      "SD": 7917,
      "uart": 7918,
      "Ġfruit": 7919,
      "icist": 7920,
      "ĠAP": 7921,
      "ĠMaced": 7922,
      "Ġdram": 7923,
      "Ġhaplogroup": 7924,
      "ĠNep": 7925,
      "ĠFood": 7926,
      "Ġalways": 7927,
      "ĠKon": 7928,
      "Ġconqu": 7929,
      "Ġrot": 7930,
      "Ġcommit": 7931,
      "azines": 7932,
      "Ġunderground": 7933,
      "Ġbrown": 7934,
      "Ġdeveloping": 7935,
      "Ġleaders": 7936,
      "ĠWhat": 7937,
      "Ġ1892": 7938,
      "Ġ1896": 7939,
      "Ġsimple": 7940,
      "Ġpersonality": 7941,
      "Ġslightly": 7942,
      "Ġchemistry": 7943,
      "ĠWorks": 7944,
      "Ġkilometres": 7945,
      "Ġgirls": 7946,
      "ymnast": 7947,
      "Ġtheorem": 7948,
      "Ġreviews": 7949,
      "Ġarrived": 7950,
      "Ġdiplomat": 7951,
      "ĠInstrum": 7952,
      "ĠAnatolia": 7953,
      "ĠHerzegov": 7954,
      "Ġcongressional": 7955,
      "emetery": 7956,
      "odecahedron": 7957,
      "handed": 7958,
      "sch": 7959,
      "Ġce": 7960,
      "Ġlakes": 7961,
      "ĠDog": 7962,
      "Ġwhole": 7963,
      "ureau": 7964,
      "anyon": 7965,
      "levard": 7966,
      "Ġscoring": 7967,
      "azar": 7968,
      "Ġtrav": 7969,
      "ĠExecutive": 7970,
      "ĠAmsterdam": 7971,
      "Ġretirement": 7972,
      "Ġorganic": 7973,
      "ĠÃģ": 7974,
      "ĠTrail": 7975,
      "Ġ1871": 7976,
      "ĠMagazine": 7977,
      "ĠPlayStation": 7978,
      "rainian": 7979,
      "ĠKeith": 7980,
      "bassador": 7981,
      "Ġgreater": 7982,
      "ĠGordon": 7983,
      "Ġcousin": 7984,
      "ĠHerzegovina": 7985,
      "TE": 7986,
      "furt": 7987,
      "uing": 7988,
      "Ã«": 7989,
      "Ġsac": 7990,
      "Ġcrown": 7991,
      "Ġbought": 7992,
      "ĠCob": 7993,
      "Ġdry": 7994,
      "ĠHab": 7995,
      "ĠHend": 7996,
      "ĠDistricts": 7997,
      "ĠFact": 7998,
      "Ġreasons": 7999,
      "ĠKeral": 8000,
      "ourg": 8001,
      "Ġparties": 8002,
      "ĠArc": 8003,
      "ographics": 8004,
      "Ġimpr": 8005,
      "Ġdeputy": 8006,
      "Ġemig": 8007,
      "Ġ|}": 8008,
      "ĠMcK": 8009,
      "othic": 8010,
      "castle": 8011,
      "Ġstandards": 8012,
      "marine": 8013,
      "1970": 8014,
      "oslov": 8015,
      "ĠSpeed": 8016,
      "Ġquickly": 8017,
      "Ġopposite": 8018,
      "German": 8019,
      "Hz": 8020,
      "kov": 8021,
      "xi": 8022,
      "onna": 8023,
      "isch": 8024,
      "ario": 8025,
      "Ġsan": 8026,
      "ĠSnow": 8027,
      "ĠPil": 8028,
      "ayan": 8029,
      "ĠFr": 8030,
      "ĠFrid": 8031,
      "Ġgrass": 8032,
      "estone": 8033,
      "uties": 8034,
      "Ġchurches": 8035,
      "ĠAmericans": 8036,
      "Ġrecip": 8037,
      "ronounced": 8038,
      "tex": 8039,
      "Ġformal": 8040,
      "Ġnewly": 8041,
      "Ġrelay": 8042,
      "Ġaccident": 8043,
      "Ġ1876": 8044,
      "ĠCapital": 8045,
      "Ġconnection": 8046,
      "ĠBened": 8047,
      "Ġguard": 8048,
      "Ġinstrumental": 8049,
      "ĠBaptist": 8050,
      "ĠCincinn": 8051,
      "BM": 8052,
      "Cl": 8053,
      "Star": 8054,
      "person": 8055,
      "then": 8056,
      "Ã½": 8057,
      "á¹": 8058,
      "hew": 8059,
      "orage": 8060,
      "Ġselling": 8061,
      "Ġmac": 8062,
      "Ġdro": 8063,
      "ĠHorn": 8064,
      "Ġlingu": 8065,
      "ĠRick": 8066,
      "ady": 8067,
      "ĠGary": 8068,
      "ĠFat": 8069,
      "ĠFall": 8070,
      "Ġsteam": 8071,
      "Ġthous": 8072,
      "oven": 8073,
      "ĠVas": 8074,
      "geon": 8075,
      "phas": 8076,
      "Ġroots": 8077,
      "ĠArmed": 8078,
      "ĠCollect": 8079,
      "Ġabolished": 8080,
      "Ġcontact": 8081,
      "Ġcontested": 8082,
      "Ġoffensive": 8083,
      "anca": 8084,
      "Ġextrem": 8085,
      "Ġdepth": 8086,
      "Ġ1884": 8087,
      "intend": 8088,
      "Ġadministrator": 8089,
      "fficient": 8090,
      "ĠReview": 8091,
      "Ġmanufacturing": 8092,
      "Ġvolume": 8093,
      "ĠSecondary": 8094,
      "ĠDefence": 8095,
      "ĠSeveral": 8096,
      "Ġsurvey": 8097,
      "Ġpositive": 8098,
      "Ġrapper": 8099,
      "ĠDerby": 8100,
      "ĠAfghanistan": 8101,
      "RC": 8102,
      "din": 8103,
      "pur": 8104,
      "Î¿": 8105,
      "hero": 8106,
      "ĠTas": 8107,
      "ĠCO": 8108,
      "Ġdone": 8109,
      "ĠHav": 8110,
      "ĠRena": 8111,
      "ĠDig": 8112,
      "ĠNad": 8113,
      "ĠGill": 8114,
      "Ġveter": 8115,
      "iph": 8116,
      "iful": 8117,
      "aba": 8118,
      "Ġplate": 8119,
      "riel": 8120,
      "Ġrose": 8121,
      "achi": 8122,
      "ahl": 8123,
      "Ġgenre": 8124,
      "keeper": 8125,
      "Ġextens": 8126,
      "ĠSeason": 8127,
      "Ġcarbon": 8128,
      "ska": 8129,
      "ĠĠĠĠĠ": 8130,
      "Ġoccasion": 8131,
      "central": 8132,
      "ĠPalest": 8133,
      "ĠSenator": 8134,
      "Ġintroduction": 8135,
      "ĠGallery": 8136,
      "ĠHindu": 8137,
      "ĠNevada": 8138,
      "rehensive": 8139,
      "'m": 8140,
      "Aust": 8141,
      "SI": 8142,
      "caster": 8143,
      "joy": 8144,
      "ook": 8145,
      "ture": 8146,
      "ww": 8147,
      "ĠØ": 8148,
      "Ġtells": 8149,
      "orous": 8150,
      "alem": 8151,
      "Ġsuffer": 8152,
      "Ġanch": 8153,
      "Ġfixed": 8154,
      "roc": 8155,
      "ĠTru": 8156,
      "ĠMack": 8157,
      "ĠHamb": 8158,
      "omon": 8159,
      "ĠRhe": 8160,
      "ĠRub": 8161,
      "ivals": 8162,
      "ĠNear": 8163,
      "agram": 8164,
      "odia": 8165,
      "ĠAlso": 8166,
      "Ġ34": 8167,
      "Ġ42": 8168,
      "2018": 8169,
      "redited": 8170,
      "ĠClin": 8171,
      "ĠQual": 8172,
      "Ġtransmission": 8173,
      "ĠÃħ": 8174,
      "Ġemperor": 8175,
      "Ġ1882": 8176,
      "Ġlaunch": 8177,
      "Ġpromotion": 8178,
      "Ġteachers": 8179,
      "Ġincreased": 8180,
      "ĠJonathan": 8181,
      "Ġnucle": 8182,
      "Ġdialect": 8183,
      "Ġsculptor": 8184,
      "Ġrestaurant": 8185,
      "graduate": 8186,
      "Ġknowledge": 8187,
      "Ġlikely": 8188,
      "ĠLanka": 8189,
      "oregion": 8190,
      "77": 8191,
      "82": 8192,
      "NP": 8193,
      "ĠBud": 8194,
      "ĠBund": 8195,
      "ĠRain": 8196,
      "ĠRyan": 8197,
      "ĠNob": 8198,
      "Ġgive": 8199,
      "opes": 8200,
      "Ġver": 8201,
      "ĠChall": 8202,
      "rix": 8203,
      "ĠYank": 8204,
      "ĠArd": 8205,
      "Ġarmed": 8206,
      "chell": 8207,
      "ĠPrincip": 8208,
      "Ġdecor": 8209,
      "Ġdoct": 8210,
      "Ġsolid": 8211,
      "ĠIncumb": 8212,
      "helm": 8213,
      "Ġbounded": 8214,
      "ĠSatur": 8215,
      "Ġgarden": 8216,
      "Ġaccepted": 8217,
      "Ġdeclared": 8218,
      "ĠFraser": 8219,
      "reprene": 8220,
      "ĠCincinnati": 8221,
      "dorf": 8222,
      "hor": 8223,
      "jab": 8224,
      "oi": 8225,
      "Ġtank": 8226,
      "inem": 8227,
      "orial": 8228,
      "Ġfighter": 8229,
      "Ġclear": 8230,
      "ĠToy": 8231,
      "leep": 8232,
      "Ġhours": 8233,
      "ĠRav": 8234,
      "urst": 8235,
      "ĠLie": 8236,
      "ĠNu": 8237,
      "ĠFisher": 8238,
      "ĠJazz": 8239,
      "ocal": 8240,
      "utory": 8241,
      "Ġcomment": 8242,
      "rane": 8243,
      "ĠYe": 8244,
      "Ġlect": 8245,
      "egas": 8246,
      "Ġworkers": 8247,
      "ĠIsa": 8248,
      "ennial": 8249,
      "Ġ150": 8250,
      "ĠGuj": 8251,
      "Ġpromin": 8252,
      "Ġcharacterized": 8253,
      "ĠPerry": 8254,
      "ĠChester": 8255,
      "Ġassociate": 8256,
      "ourses": 8257,
      "Ġmotion": 8258,
      "ĠCzechoslov": 8259,
      "Ġlogic": 8260,
      "ĠOakland": 8261,
      "ĠSomerset": 8262,
      "RL": 8263,
      "bow": 8264,
      "fold": 8265,
      "hai": 8266,
      "iu": 8267,
      "vey": 8268,
      "||": 8269,
      "inery": 8270,
      "Ġfaces": 8271,
      "ouch": 8272,
      "ĠMond": 8273,
      "ĠMaz": 8274,
      "ĠBass": 8275,
      "Ġtoo": 8276,
      "ĠHerman": 8277,
      "Ġhills": 8278,
      "ĠRidge": 8279,
      "ĠDund": 8280,
      "ĠGrade": 8281,
      "idad": 8282,
      "ĠJerry": 8283,
      "essions": 8284,
      "ugs": 8285,
      "Ġuniform": 8286,
      "Ġaband": 8287,
      "Ġresources": 8288,
      "ĠShire": 8289,
      "Ġedited": 8290,
      "ificial": 8291,
      "ething": 8292,
      "Ã¼k": 8293,
      "Ġinterchange": 8294,
      "ĠPoly": 8295,
      "Ġsoil": 8296,
      "type": 8297,
      "2009": 8298,
      "Ġending": 8299,
      "Ġ1881": 8300,
      "ĠGray": 8301,
      "Ġarchitectural": 8302,
      "Ġexperimental": 8303,
      "ĠMichel": 8304,
      "Ġelder": 8305,
      "ĠMovement": 8306,
      "ĠBoulevard": 8307,
      "ĠCroatia": 8308,
      "ĠKerala": 8309,
      "ĠSaturday": 8310,
      "DC": 8311,
      "TS": 8312,
      "hal": 8313,
      "uary": 8314,
      "ying": 8315,
      "inch": 8316,
      "Ġbul": 8317,
      "Ġbond": 8318,
      "ĠHat": 8319,
      "ĠHas": 8320,
      "ĠRange": 8321,
      "ĠRico": 8322,
      "Ġnom": 8323,
      "ĠLamb": 8324,
      "ĠNatural": 8325,
      "Ġreality": 8326,
      "Ġstyl": 8327,
      "Ġplans": 8328,
      "Ġplanned": 8329,
      "antin": 8330,
      "Ġleagues": 8331,
      "ĠNewton": 8332,
      "ĠConn": 8333,
      "Ġprepar": 8334,
      "Ġmaintain": 8335,
      "Ġentry": 8336,
      "Ġremembered": 8337,
      "Ġextension": 8338,
      "book": 8339,
      "ĠHerbert": 8340,
      "ĠPeru": 8341,
      "Ġprotection": 8342,
      "fluence": 8343,
      "Ġtypical": 8344,
      "ĠDrive": 8345,
      "unning": 8346,
      "ĠCampbell": 8347,
      "Ġbelonged": 8348,
      "ĠOslo": 8349,
      "ĠEgyptian": 8350,
      "Ġanthrop": 8351,
      "Ġadaptation": 8352,
      "Ġexpedition": 8353,
      "educational": 8354,
      "Ġpianist": 8355,
      ")\"": 8356,
      "DE": 8357,
      "mel": 8358,
      "titled": 8359,
      "Ġpieces": 8360,
      "Ġmand": 8361,
      "ĠHig": 8362,
      "ĠInit": 8363,
      "aca": 8364,
      "Ġvote": 8365,
      "ĠHeat": 8366,
      "eget": 8367,
      "Ġappar": 8368,
      "obi": 8369,
      "Ġcolony": 8370,
      "Ġscript": 8371,
      "ĠWarren": 8372,
      "urop": 8373,
      "Ġentreprene": 8374,
      "ĠTrain": 8375,
      "ĠTraining": 8376,
      "olves": 8377,
      "Ġdrink": 8378,
      "Ġstatistical": 8379,
      "ĠEvans": 8380,
      "Ġinvolves": 8381,
      "ĠLux": 8382,
      "ĠÅŀ": 8383,
      "ĠFinance": 8384,
      "ĠCamer": 8385,
      "Ġautomobile": 8386,
      "Ġconvicted": 8387,
      "Ġsequence": 8388,
      "Ġuniversities": 8389,
      "ĠUkrainian": 8390,
      "Ġceremon": 8391,
      "ĠCEO": 8392,
      "Ġcartoon": 8393,
      "Ġpilot": 8394,
      "oustic": 8395,
      "Man": 8396,
      "door": 8397,
      "lov": 8398,
      "lington": 8399,
      "sey": 8400,
      "wyn": 8401,
      "arrow": 8402,
      "itness": 8403,
      "Ġbring": 8404,
      "ĠAer": 8405,
      "ĠCly": 8406,
      "Ġmine": 8407,
      "Ġisol": 8408,
      "ĠMess": 8409,
      "ĠBR": 8410,
      "ĠIf": 8411,
      "ĠDigital": 8412,
      "ĠNY": 8413,
      "ige": 8414,
      "ĠFoot": 8415,
      "Ġreact": 8416,
      "ĠKw": 8417,
      "ifax": 8418,
      "eway": 8419,
      "ĠVice": 8420,
      "Ġclan": 8421,
      "Ġuser": 8422,
      "acht": 8423,
      "iko": 8424,
      "Ġadmitted": 8425,
      "Ġcommemor": 8426,
      "Ġregularly": 8427,
      "mpt": 8428,
      "Ġsecret": 8429,
      "ĠJohnny": 8430,
      "ression": 8431,
      "ĠPriv": 8432,
      "uthors": 8433,
      "ĠRecording": 8434,
      "Ġlaid": 8435,
      "Ġportions": 8436,
      "Ġcollective": 8437,
      "Ġdrive": 8438,
      "Ġvocal": 8439,
      "Ġadvance": 8440,
      "Ġresulting": 8441,
      "Ġplatforms": 8442,
      "Ġordinary": 8443,
      "ĠCypr": 8444,
      "Ġratified": 8445,
      "ĠClarke": 8446,
      "Ġgoverning": 8447,
      "ĠIvan": 8448,
      "ĠCeltic": 8449,
      "72": 8450,
      "AL": 8451,
      "aÄŁ": 8452,
      "Ġflying": 8453,
      "Ġped": 8454,
      "Ġpra": 8455,
      "rose": 8456,
      "ĠTib": 8457,
      "Ġmile": 8458,
      "Ġdub": 8459,
      "ĠLast": 8460,
      "ĠOsc": 8461,
      "ifer": 8462,
      "illery": 8463,
      "Ġexists": 8464,
      "Ġartery": 8465,
      "Ġjump": 8466,
      "ohn": 8467,
      "Ġrain": 8468,
      "Ġperhaps": 8469,
      "ĠClar": 8470,
      "iscopal": 8471,
      "Ġprevent": 8472,
      "ĠPhoen": 8473,
      "ĠBarcelona": 8474,
      "porter": 8475,
      "Ġsuperv": 8476,
      "Ġpublications": 8477,
      "icester": 8478,
      "Ġstarts": 8479,
      "Ġemphas": 8480,
      "Ġreceiving": 8481,
      "uki": 8482,
      "Ġlands": 8483,
      "1993": 8484,
      "Ġ1878": 8485,
      "Ġ1879": 8486,
      "Ġ1860": 8487,
      "ĠGriff": 8488,
      "Ġfactory": 8489,
      "Ġpeninsula": 8490,
      "Ġcabinet": 8491,
      "ĠMarshall": 8492,
      "Ġcontributions": 8493,
      "Ġstraight": 8494,
      "Ġalphabet": 8495,
      "Ġgalax": 8496,
      "ĠIncumbents": 8497,
      "68": 8498,
      "football": 8499,
      "histor": 8500,
      "Ġsector": 8501,
      "Ġbay": 8502,
      "ĠSony": 8503,
      "ĠCay": 8504,
      "ĠBart": 8505,
      "ĠBase": 8506,
      "ĠIan": 8507,
      "olo": 8508,
      "ĠPic": 8509,
      "ĠRace": 8510,
      "ĠLib": 8511,
      "ivia": 8512,
      "emy": 8513,
      "ĠJenn": 8514,
      "ulu": 8515,
      "ĠOw": 8516,
      "ĠUE": 8517,
      "arting": 8518,
      "izer": 8519,
      "Ġcontrolled": 8520,
      "ansk": 8521,
      "aja": 8522,
      "Ġproduces": 8523,
      "ĠOnly": 8524,
      "ĠCoach": 8525,
      "Ġcarries": 8526,
      "Ġmembership": 8527,
      "ĠDemographics": 8528,
      "Ġmedalists": 8529,
      "ĠArchbishop": 8530,
      "Ġopposition": 8531,
      "Ġdiocese": 8532,
      "ĠContin": 8533,
      "monton": 8534,
      "ĠDaily": 8535,
      "founded": 8536,
      "Ġtemple": 8537,
      "ĠBarbara": 8538,
      "ĠAdministration": 8539,
      "foot": 8540,
      "host": 8541,
      "rub": 8542,
      "ãĥ": 8543,
      "atra": 8544,
      "alog": 8545,
      "Ġbotan": 8546,
      "ĠSeb": 8547,
      "ĠSoul": 8548,
      "leigh": 8549,
      "ĠMick": 8550,
      "Ġdig": 8551,
      "Ġdoll": 8552,
      "ĠPay": 8553,
      "ĠProm": 8554,
      "ĠPear": 8555,
      "ĠPont": 8556,
      "adian": 8557,
      "igious": 8558,
      "ĠEM": 8559,
      "idel": 8560,
      "iders": 8561,
      "racy": 8562,
      "otton": 8563,
      "Ġgram": 8564,
      "Ġru": 8565,
      "Ġhect": 8566,
      "rical": 8567,
      "Ġcompared": 8568,
      "ellation": 8569,
      "Ġyet": 8570,
      "ensen": 8571,
      "Ġunc": 8572,
      "Ġindoor": 8573,
      "ĠBarn": 8574,
      "Ġparent": 8575,
      "Ġ1863": 8576,
      "Ġpopularity": 8577,
      "Ġadvoc": 8578,
      "III": 8579,
      "ĠHalifax": 8580,
      "ĠMuslims": 8581,
      "ĠSpeaker": 8582,
      "Ġagriculture": 8583,
      "ĠDurham": 8584,
      "ĠGibson": 8585,
      "Ġliquid": 8586,
      "kan": 8587,
      "nik": 8588,
      "oes": 8589,
      "erk": 8590,
      "ĠMort": 8591,
      "ĠMend": 8592,
      "ĠBatt": 8593,
      "ĠJay": 8594,
      "utton": 8595,
      "Ġrich": 8596,
      "ĠSte": 8597,
      "merce": 8598,
      "Ġconference": 8599,
      "ichi": 8600,
      "Ġcompar": 8601,
      "ĠNewcastle": 8602,
      "ĠEnt": 8603,
      "Ġpoll": 8604,
      "Ã©s": 8605,
      "Ġimages": 8606,
      "ĠCarter": 8607,
      "ĠPrison": 8608,
      "Ġsupply": 8609,
      "ĠParish": 8610,
      "ĠSyria": 8611,
      "ĠSymphony": 8612,
      "Ġengines": 8613,
      "Ġ1887": 8614,
      "ĠPortland": 8615,
      "ĠAgency": 8616,
      "Ġpassing": 8617,
      "Ġprotected": 8618,
      "ĠMilan": 8619,
      "Ġautonomous": 8620,
      "ĠHistorical": 8621,
      "ĠMagn": 8622,
      "Ġsoldiers": 8623,
      "Ġfrequ": 8624,
      "ĠArchitect": 8625,
      "Ġexisting": 8626,
      "Ġzone": 8627,
      "Ġneighboring": 8628,
      "ĠSlovakia": 8629,
      "largest": 8630,
      "ĠProtest": 8631,
      "Ġreading": 8632,
      "Ġplanet": 8633,
      "ĠMedalists": 8634,
      "speaking": 8635,
      "Ġaspects": 8636,
      "ĠTasman": 8637,
      "76": 8638,
      "cz": 8639,
      "fe": 8640,
      "fall": 8641,
      "yard": 8642,
      "Ġtalk": 8643,
      "eri": 8644,
      "eni": 8645,
      "Ġsons": 8646,
      "itus": 8647,
      "Ġcas": 8648,
      "Ġpermanent": 8649,
      "ĠMem": 8650,
      "enti": 8651,
      "ĠHold": 8652,
      "ĠPel": 8653,
      "ĠGaz": 8654,
      "race": 8655,
      "ĠStuart": 8656,
      "Ġheat": 8657,
      "Ġplain": 8658,
      "Ġexchange": 8659,
      "encing": 8660,
      "Ġresear": 8661,
      "Ġscale": 8662,
      "Ġattending": 8663,
      "ĠExped": 8664,
      "lett": 8665,
      "Ġmonarch": 8666,
      "Ġbelief": 8667,
      "Ġmagazines": 8668,
      "1987": 8669,
      "Ġ1850": 8670,
      "Ġreplacing": 8671,
      "Ġtourist": 8672,
      "Ã¤r": 8673,
      "Ġselection": 8674,
      "Ġcritics": 8675,
      "ĠSteven": 8676,
      "ĠModel": 8677,
      "brook": 8678,
      "Ġincreasing": 8679,
      "Ġpeace": 8680,
      "Ġimpact": 8681,
      "ĠAntarctic": 8682,
      "Ġtemperature": 8683,
      "ĠMiddles": 8684,
      "die": 8685,
      "ju": 8686,
      "Ð²": 8687,
      "Ġincom": 8688,
      "Ġfile": 8689,
      "ĠTower": 8690,
      "ento": 8691,
      "ĠHad": 8692,
      "ĠGround": 8693,
      "ĠFo": 8694,
      "owo": 8695,
      "agg": 8696,
      "ĠKnown": 8697,
      "anti": 8698,
      "Ġcomputers": 8699,
      "ounds": 8700,
      "Ġarrest": 8701,
      "Ġ39": 8702,
      "ĠLeicester": 8703,
      "Ġconsult": 8704,
      "ĠBrun": 8705,
      "ĠWarner": 8706,
      "ĠBlues": 8707,
      "Ġdesigns": 8708,
      "2008": 8709,
      "ĠTrinity": 8710,
      "Ġstrugg": 8711,
      "Ġprocessing": 8712,
      "ĠMerc": 8713,
      "Ġpatron": 8714,
      "Ġdocuments": 8715,
      "Ġgrandfather": 8716,
      "Ġfarmer": 8717,
      "Ġtroops": 8718,
      "miral": 8719,
      "ĠCraig": 8720,
      "Ġswimming": 8721,
      "Ġdestroyed": 8722,
      "Ġwrestler": 8723,
      "No": 8724,
      "bound": 8725,
      "hu": 8726,
      "pret": 8727,
      "rington": 8728,
      "Ġque": 8729,
      "Ġwant": 8730,
      "ĠSad": 8731,
      "ĠML": 8732,
      "ĠHope": 8733,
      "Ġlieutenant": 8734,
      "ĠRoche": 8735,
      "tha": 8736,
      "Ġreaction": 8737,
      "ĠESP": 8738,
      "ĠJa": 8739,
      "Ġstreng": 8740,
      "imon": 8741,
      "Ġalcoh": 8742,
      "ĠOg": 8743,
      "ĠOil": 8744,
      "ĠKay": 8745,
      "ĠHeights": 8746,
      "avan": 8747,
      "Ġplaywright": 8748,
      "ĠAnother": 8749,
      "Ġcontributed": 8750,
      "ocks": 8751,
      "Ġactually": 8752,
      "Ġforming": 8753,
      "ĠNorthwest": 8754,
      "Ġtrading": 8755,
      "borg": 8756,
      "Ġperiods": 8757,
      "ragon": 8758,
      "Ġlabor": 8759,
      "Ġstatistics": 8760,
      "ĠWilhelm": 8761,
      "Ġlimit": 8762,
      "ĠMinor": 8763,
      "ĠApost": 8764,
      "ĠTransportation": 8765,
      "ĠLarry": 8766,
      "Ġcurrency": 8767,
      "ĠHawaii": 8768,
      "ĠGonz": 8769,
      "ĠFilipino": 8770,
      "footballer": 8771,
      "ES": 8772,
      "fri": 8773,
      "fare": 8774,
      "lane": 8775,
      "rates": 8776,
      "ÅĽ": 8777,
      "Ġtheat": 8778,
      "Ġinner": 8779,
      "asia": 8780,
      "Ġcour": 8781,
      "ĠAur": 8782,
      "ĠAuck": 8783,
      "iler": 8784,
      "ĠBull": 8785,
      "ĠBureau": 8786,
      "ĠRing": 8787,
      "ĠRus": 8788,
      "aded": 8789,
      "Ġninet": 8790,
      "Ġstyles": 8791,
      "Ġthreat": 8792,
      "iab": 8793,
      "ĠKra": 8794,
      "aco": 8795,
      "Ġpros": 8796,
      "ĠHein": 8797,
      "ortun": 8798,
      "ĠLeban": 8799,
      "Ġprint": 8800,
      "Ġ52": 8801,
      "ĠEdmonton": 8802,
      "Ġphrase": 8803,
      "amble": 8804,
      "Ġintelligence": 8805,
      "Ġdefender": 8806,
      "Ġlongitude": 8807,
      "ĠGuang": 8808,
      "Ġendemic": 8809,
      "ĠAcadem": 8810,
      "Ġ1873": 8811,
      "ĠPrix": 8812,
      "Ġruler": 8813,
      "Ġeffective": 8814,
      "Ġopposed": 8815,
      "ĠJimmy": 8816,
      "Ġpotential": 8817,
      "Ġranging": 8818,
      "ĠBuddhist": 8819,
      "Ġvessel": 8820,
      "ĠPunjab": 8821,
      "ĠMitchell": 8822,
      "69": 8823,
      "79": 8824,
      "MC": 8825,
      "country": 8826,
      "gal": 8827,
      "ser": 8828,
      "tz": 8829,
      "zig": 8830,
      "Â²": 8831,
      "Ġferry": 8832,
      "rez": 8833,
      "ĠSig": 8834,
      "ĠSaints": 8835,
      "ĠTerry": 8836,
      "ĠBj": 8837,
      "ĠBeck": 8838,
      "ĠPant": 8839,
      "Ġharm": 8840,
      "ĠWW": 8841,
      "Ġgiant": 8842,
      "artet": 8843,
      "Ġconfluence": 8844,
      "eyer": 8845,
      "ĠEnergy": 8846,
      "Ġdespite": 8847,
      "Ġprovinces": 8848,
      "Ġdiscip": 8849,
      "ĠEmir": 8850,
      "Ġ1862": 8851,
      "Ġexpansion": 8852,
      "Ã§a": 8853,
      "ĠArms": 8854,
      "Ġinvolving": 8855,
      "ĠDevon": 8856,
      "playing": 8857,
      "Ġtranslator": 8858,
      "ĠOliver": 8859,
      "Ġaudience": 8860,
      "ĠHorse": 8861,
      "Ġelectrical": 8862,
      "ĠCharlotte": 8863,
      "Ġtelephone": 8864,
      "ĠLudwig": 8865,
      "Ġbehavior": 8866,
      "Ġdiverse": 8867,
      "ĠVincent": 8868,
      "ĠAzerbaijan": 8869,
      "Ġentrepreneur": 8870,
      "ĠAuckland": 8871,
      "DP": 8872,
      "bel": 8873,
      "cap": 8874,
      "dong": 8875,
      "iop": 8876,
      "listed": 8877,
      "mosp": 8878,
      "oons": 8879,
      "oque": 8880,
      "rus": 8881,
      "Ïģ": 8882,
      "Ġsed": 8883,
      "Ġward": 8884,
      "Ġfalls": 8885,
      "rete": 8886,
      "ĠSz": 8887,
      "ĠTot": 8888,
      "ĠTrip": 8889,
      "ilit": 8890,
      "ilogy": 8891,
      "ĠBak": 8892,
      "eline": 8893,
      "ĠRu": 8894,
      "ĠRest": 8895,
      "uri": 8896,
      "eta": 8897,
      "ĠDie": 8898,
      "ĠGot": 8899,
      "ĠJava": 8900,
      "Ġgiving": 8901,
      "Ġstated": 8902,
      "Ġrif": 8903,
      "Ġbey": 8904,
      "uble": 8905,
      "ĠVideo": 8906,
      "ogne": 8907,
      "Ġdead": 8908,
      "Ġ38": 8909,
      "ignated": 8910,
      "ampa": 8911,
      "Ġacademy": 8912,
      "Ġnotes": 8913,
      "Ġreleases": 8914,
      "Ã©n": 8915,
      "Ġelectorate": 8916,
      "Ġshel": 8917,
      "aukee": 8918,
      "Ġcompetitors": 8919,
      "Ġentrance": 8920,
      "Ã¼ck": 8921,
      "Ġinterview": 8922,
      "Ġmeters": 8923,
      "Ġdisband": 8924,
      "Ġ1866": 8925,
      "ĠAges": 8926,
      "plete": 8927,
      "ĠNotes": 8928,
      "Ġcrosses": 8929,
      "Ġadvanced": 8930,
      "ĠDelta": 8931,
      "ĠAlbany": 8932,
      "Ġdefeating": 8933,
      "ĠHunter": 8934,
      "Ġimmigrants": 8935,
      "Ġvicer": 8936,
      "Ġphenomen": 8937,
      "ĠNelson": 8938,
      "ĠBenedict": 8939,
      "fin": 8940,
      "pol": 8941,
      "run": 8942,
      "soccer": 8943,
      "Ġauthors": 8944,
      "oria": 8945,
      "esar": 8946,
      "ĠSC": 8947,
      "ĠSay": 8948,
      "ĠSul": 8949,
      "rot": 8950,
      "ĠTong": 8951,
      "ĠTob": 8952,
      "ĠCec": 8953,
      "Ġmut": 8954,
      "ĠBush": 8955,
      "Ġdiam": 8956,
      "enter": 8957,
      "ĠHud": 8958,
      "ĠPin": 8959,
      "Ġeas": 8960,
      "umi": 8961,
      "Ġthrone": 8962,
      "ĠKor": 8963,
      "ĠUN": 8964,
      "quer": 8965,
      "Ġexam": 8966,
      "Ġpartnership": 8967,
      "Ġ43": 8968,
      "Ġprince": 8969,
      "icks": 8970,
      "ĠFrances": 8971,
      "Ġrelative": 8972,
      "auth": 8973,
      "Ġlink": 8974,
      "Ġemp": 8975,
      "Ġmatter": 8976,
      "Ġflowering": 8977,
      "Ġnetworks": 8978,
      "Ġfemales": 8979,
      "ĠElection": 8980,
      "Ġsurviving": 8981,
      "ĠHarrison": 8982,
      "ĠFiji": 8983,
      "ĠLutheran": 8984,
      "Ġbottom": 8985,
      "ĠFigure": 8986,
      "ĠUEFA": 8987,
      "nan": 8988,
      "sometimes": 8989,
      "âĪ": 8990,
      "atus": 8991,
      "Ġsalt": 8992,
      "Ġfat": 8993,
      "Ġbachelor": 8994,
      "ĠCit": 8995,
      "Ġmasc": 8996,
      "Ġnav": 8997,
      "ĠFA": 8998,
      "ĠFeat": 8999,
      "iri": 9000,
      "Ġrepe": 9001,
      "acre": 9002,
      "Ġpartial": 9003,
      "ĠThorn": 9004,
      "Ġresort": 9005,
      "people": 9006,
      "Ġcolour": 9007,
      "Ġ55": 9008,
      "Ġenough": 9009,
      "Ġenjoy": 9010,
      "ĠRegal": 9011,
      "Ġpoems": 9012,
      "1991": 9013,
      "Ġderiv": 9014,
      "Ġcompletely": 9015,
      "Ġmathematical": 9016,
      "ĠPanama": 9017,
      "ĠKnight": 9018,
      "Ġviews": 9019,
      "ĠUtrecht": 9020,
      "ĠCuban": 9021,
      "MLB": 9022,
      "diocese": 9023,
      "Ġencompasses": 9024,
      "ĠTigers": 9025,
      "Ġheavily": 9026,
      "ĠAnglican": 9027,
      "ĠESPN": 9028,
      "Ġbeyond": 9029,
      "AKP": 9030,
      "LO": 9031,
      "bot": 9032,
      "bank": 9033,
      "cos": 9034,
      "rise": 9035,
      "waukee": 9036,
      "Ġslow": 9037,
      "ĠSit": 9038,
      "ĠCum": 9039,
      "Ġmess": 9040,
      "ĠMann": 9041,
      "ĠHugh": 9042,
      "Ġlizard": 9043,
      "ĠDance": 9044,
      "ĠGust": 9045,
      "Ġeye": 9046,
      "Ġstring": 9047,
      "Ġalpine": 9048,
      "opter": 9049,
      "allow": 9050,
      "Ġcomics": 9051,
      "aks": 9052,
      "ugar": 9053,
      "Ġcomprehensive": 9054,
      "Ġactual": 9055,
      "Ġ41": 9056,
      "ĠBright": 9057,
      "Ġmovies": 9058,
      "ussels": 9059,
      "ĠHarbour": 9060,
      "ropod": 9061,
      "Ġshowing": 9062,
      "Ġbasin": 9063,
      "ĠAndy": 9064,
      "ĠGlobal": 9065,
      "1994": 9066,
      "Ġ1886": 9067,
      "Ġ1868": 9068,
      "ospel": 9069,
      "verse": 9070,
      "ĠJews": 9071,
      "Ġbirds": 9072,
      "Ġcompounds": 9073,
      "ĠRonald": 9074,
      "ĠDragon": 9075,
      "Ġcertified": 9076,
      "Ġweapons": 9077,
      "ĠVenezuela": 9078,
      "Ġunusual": 9079,
      "DA": 9080,
      "cussion": 9081,
      "mate": 9082,
      "point": 9083,
      "selling": 9084,
      "Ġcod": 9085,
      "Ġbin": 9086,
      "Ġmos": 9087,
      "ĠMeg": 9088,
      "enton": 9089,
      "ĠHob": 9090,
      "ĠTheater": 9091,
      "Ġhors": 9092,
      "istani": 9093,
      "ĠWag": 9094,
      "idal": 9095,
      "ĠOst": 9096,
      "aby": 9097,
      "ĠVest": 9098,
      "Ġ1830": 9099,
      "ĠAlice": 9100,
      "oka": 9101,
      "shaped": 9102,
      "ĠLeeds": 9103,
      "aho": 9104,
      "olds": 9105,
      "atham": 9106,
      "icket": 9107,
      "ĠClay": 9108,
      "ĠPhD": 9109,
      "auge": 9110,
      "uitars": 9111,
      "boards": 9112,
      "Ġdepend": 9113,
      "idden": 9114,
      "ĠUSS": 9115,
      "1992": 9116,
      "ophical": 9117,
      "Ġstandings": 9118,
      "Ġrevised": 9119,
      "ĠAgricult": 9120,
      "Ġtriang": 9121,
      "ĠActor": 9122,
      "ĠPlayer": 9123,
      "Ġanimation": 9124,
      "ĠMadrid": 9125,
      "Ġreturning": 9126,
      "ĠMidland": 9127,
      "Ġrequire": 9128,
      "Ġkeyboard": 9129,
      "Ġsubsequent": 9130,
      "ighthouse": 9131,
      "Ġratio": 9132,
      "Ġscholarship": 9133,
      "Ġmechanical": 9134,
      "rystal": 9135,
      "Ġlocomotives": 9136,
      "NBA": 9137,
      "RT": 9138,
      "We": 9139,
      "aire": 9140,
      "bey": 9141,
      "bird": 9142,
      "mod": 9143,
      "set": 9144,
      "vi": 9145,
      "Ãª": 9146,
      "à¸": 9147,
      "onus": 9148,
      "esis": 9149,
      "Ġinform": 9150,
      "Ġbone": 9151,
      "ĠSign": 9152,
      "ĠSaf": 9153,
      "ĠTang": 9154,
      "ĠCatherine": 9155,
      "Ġmight": 9156,
      "Ġmurd": 9157,
      "ĠMap": 9158,
      "ĠMong": 9159,
      "ĠBald": 9160,
      "ĠPy": 9161,
      "ĠPut": 9162,
      "eton": 9163,
      "Ġnecess": 9164,
      "ĠLanguage": 9165,
      "ĠGang": 9166,
      "ĠSteel": 9167,
      "abric": 9168,
      "ĠVI": 9169,
      "ĠUnit": 9170,
      "Ġsciences": 9171,
      "icking": 9172,
      "eoples": 9173,
      "Ġmaintained": 9174,
      "Ġlinked": 9175,
      "Ġcommunication": 9176,
      "Ġdiscuss": 9177,
      "Ġdiscontin": 9178,
      "Ġ1858": 9179,
      "Ġresulted": 9180,
      "Ġterritories": 9181,
      "ĠWorkers": 9182,
      "Ġalternate": 9183,
      "ĠRepresentative": 9184,
      "ĠCardinals": 9185,
      "ĠIndependence": 9186,
      "Ġcelebrated": 9187,
      "Ġinventor": 9188,
      "Ġabsor": 9189,
      "ĠParalympic": 9190,
      "ĠEagles": 9191,
      "Ġmartial": 9192,
      "ipelago": 9193,
      "LD": 9194,
      "Ġinher": 9195,
      "Ġwall": 9196,
      "Ġcru": 9197,
      "Ġcourses": 9198,
      "Ġbr": 9199,
      "Ġbrain": 9200,
      "Ġpap": 9201,
      "ĠAth": 9202,
      "Ġ1000": 9203,
      "Ġmo": 9204,
      "ĠBronze": 9205,
      "olt": 9206,
      "ĠHaving": 9207,
      "ĠPack": 9208,
      "omorph": 9209,
      "stery": 9210,
      "elin": 9211,
      "ĠRut": 9212,
      "ĠDart": 9213,
      "ĠDiamond": 9214,
      "ĠLions": 9215,
      "ĠLomb": 9216,
      "Ġgain": 9217,
      "ims": 9218,
      "Ġthr": 9219,
      "ĠKath": 9220,
      "Ġorchestra": 9221,
      "apes": 9222,
      "Ġcomponents": 9223,
      "Ġroutes": 9224,
      "erne": 9225,
      "ikh": 9226,
      "itionally": 9227,
      "Ġcenters": 9228,
      "ĠScient": 9229,
      "Ã©t": 9230,
      "ashire": 9231,
      "Ġdefunct": 9232,
      "Ġterminal": 9233,
      "Ġblues": 9234,
      "boro": 9235,
      "ĠSki": 9236,
      "mediate": 9237,
      "ĠNeil": 9238,
      "Ġbiography": 9239,
      "Ġfaculty": 9240,
      "Ġbreed": 9241,
      "Ġrecognised": 9242,
      "Ġtournaments": 9243,
      "Ġdomain": 9244,
      "Ġcaptured": 9245,
      "ĠOtto": 9246,
      "Ġnormal": 9247,
      "ĠLancashire": 9248,
      "Ġsegment": 9249,
      "ĠTaxonomy": 9250,
      "ĠNigeria": 9251,
      "Ġexclusively": 9252,
      "Ġvideos": 9253,
      "ĠLuxemb": 9254,
      "ĠExpedition": 9255,
      "OM": 9256,
      "brid": 9257,
      "fly": 9258,
      "enne": 9259,
      "Ġsession": 9260,
      "Ġinstitute": 9261,
      "itime": 9262,
      "Ġfram": 9263,
      "Ġcattle": 9264,
      "Ġpale": 9265,
      "ĠSite": 9266,
      "roph": 9267,
      "ĠTon": 9268,
      "ĠBert": 9269,
      "olly": 9270,
      "unction": 9271,
      "Ġnerve": 9272,
      "ĠLac": 9273,
      "ĠLoch": 9274,
      "ĠNC": 9275,
      "Ġreason": 9276,
      "ĠVil": 9277,
      "eville": 9278,
      "ĠNewspap": 9279,
      "2017": 9280,
      "Ġotherwise": 9281,
      "ĠPlate": 9282,
      "annah": 9283,
      "ĠBrussels": 9284,
      "ĠWarwick": 9285,
      "Ġcommunications": 9286,
      "Ġskier": 9287,
      "ucted": 9288,
      "rett": 9289,
      "tingham": 9290,
      "Ġauthorities": 9291,
      "Ġannounc": 9292,
      "1989": 9293,
      "ĠEvangel": 9294,
      "Ġhonour": 9295,
      "formance": 9296,
      "Ġsenator": 9297,
      "ĠDefense": 9298,
      "Ġdoubles": 9299,
      "ĠStatistical": 9300,
      "ĠPhilippine": 9301,
      "boys": 9302,
      "Ġcollaboration": 9303,
      "Ġastronomer": 9304,
      "Ġcolleges": 9305,
      "Ġfavor": 9306,
      "ĠNicholas": 9307,
      "communications": 9308,
      "ĠVermont": 9309,
      "ĠPhoenix": 9310,
      "74": 9311,
      "HA": 9312,
      "equ": 9313,
      "eastern": 9314,
      "gae": 9315,
      "hy": 9316,
      "pan": 9317,
      "uis": 9318,
      "uke": 9319,
[...]
